{"version": "bpe-1", "unk_token": "[UNK]", "end_of_word": "</w>", "merges": [[":", "</w>"], [",", "</w>"], [".", "</w>"], ["다", ".</w>"], ["한", "다.</w>"], ["─", "─"], ["0", "2"], ["-", "</w>"], ["2", "02"], ["|", "</w>"], ["6", "-"], ["]", "</w>"], ["202", "6-"], ["을", "</w>"], ["-", "-"], ["로", "</w>"], ["프", "로"], ["는", "</w>"], ["프로", "젝"], ["프로젝", "트"], ["를", "</w>"], ["──", "──"], ["과", "</w>"], ["2026-", "0"], ["리", "스"], ["인", "</w>"], ["운", "영"], ["문", "서"], ["작", "성"], ["~", "</w>"], ["상", "</w>"], ["프로젝트", "</w>"], ["명", ":</w>"], ["변", "경"], ["준", "</w>"], ["부", "</w>"], ["검", "증"], ["정", "</w>"], ["개", "선"], ["의", "</w>"], ["승", "인</w>"], ["검", "토"], ["변경", "</w>"], ["리스", "크"], ["지", "표"], ["은", "</w>"], ["며", "</w>"], ["-", "1"], ["개선", "</w>"], ["제", "</w>"], ["분", "류"], ["기", "록"], ["도", "</w>"], ["[", "</w>"], ["검토", "</w>"], ["수", "</w>"], ["-", ">"], ["->", "</w>"], ["운영", "</w>"], ["이", "</w>"], ["으", "로</w>"], ["검증", "</w>"], ["고", "</w>"], ["-", "2"], ["-", "0"], ["본", "</w>"], ["가", "상</w>"], ["점", "검"], ["내", "부</w>"], ["문서", "는</w>"], ["/", "</w>"], ["무", "관"], ["무관", "함"], ["절", "차"], ["비", "율"], ["별", "</w>"], ["%", "</w>"], ["적", "용"], ["지", "연"], ["────", "────"], ["로", "그"], ["%", ",</w>"], ["성", "</w>"], ["한", "</w>"], ["대", "응"], ["시", "나"], ["시나", "리"], ["시나리", "오"], ["이", "트"], ["시", "</w>"], ["후", "</w>"], ["계", "</w>"], ["부", "서"], ["력", "</w>"], [";", "</w>"], ["기", "준</w>"], ["간", ":</w>"], ["조", "직"], ["시나리오", ":</w>"], ["사", "업"], ["데", "모"], ["데모", "용"], ["데모용", "이"], ["데모용이", "며</w>"], ["실", "제</w>"], ["사업", "과</w>"], ["무관함", ".</w>"], ["문서", "명:</w>"], ["조직", ":</w>"], ["프로젝트", ":</w>"], ["별", "칭"], ["별칭", ":</w>"], ["코", "드"], ["코드", "명:</w>"], ["분류", ":</w>"], ["작성", "부서"], ["작성부서", ":</w>"], ["작성", "기"], ["작성기", "간:</w>"], ["2026-", "1"], ["처", "리"], ["원", "칙"], ["보", "관"], ["계", "획"], ["리스크", "</w>"], ["능", "</w>"], ["--", "-"], ["사", "</w>"], ["점검", "</w>"], ["대응", "</w>"], ["합", "</w>"], ["률", "</w>"], ["감", "사</w>"], ["레", "이"], ["실", "</w>"], ["와", "</w>"], ["---", "|"], ["기", "술"], ["환", "경"], ["요", "약"], ["심", "</w>"], ["핵", "심</w>"], ["게", "이트"], ["열", "람"], ["열람", "</w>"], ["품", "질"], ["재", "발"], ["일", "</w>"], ["→", "</w>"], ["에", "서"], ["지표", ":</w>"], ["간", "</w>"], ["리스", "트"], ["체", "크"], ["체크", "리스트"], ["터", "</w>"], ["요", "</w>"], ["비율", "이</w>"], ["드", "</w>"], ["주", "기"], ["지표", "</w>"], ["기", "별</w>"], ["스", "</w>"], ["예", "외"], ["]", "["], ["안", "정"], ["팀", "</w>"], ["지", "</w>"], ["레이", "션"], ["건", "</w>"], ["관", "리"], ["시", "뮬"], ["시뮬", "레이션"], ["정", "책"], ["영", "</w>"], ["보", "고</w>"], ["행", "한다.</w>"], ["성", "능</w>"], ["반", "영</w>"], ["고", "객"], ["보", "안"], ["경", "로"], ["안", "내"], ["해", "</w>"], ["시", "험"], ["3", "</w>"], ["단", "계"], ["임", "</w>"], ["터", "페"], ["9", "</w>"], ["정", "상</w>"], ["7", "</w>"], ["표", "준</w>"], ["인", "터페"], ["5", "</w>"], ["품질", "</w>"], ["기", "준"], ["인터페", "이"], ["통", "합</w>"], ["치", "</w>"], ["1", "</w>"], ["어", "</w>"], ["기록", "</w>"], ["월", "간</w>"], ["일", "정</w>"], ["재", "현"], ["로그", "</w>"], ["통", "제"], ["루", "프"], ["개", "요"], ["목", "적"], ["목적", ":</w>"], ["확", "도</w>"], ["정", "확도</w>"], ["접", "근"], ["접근", "</w>"], ["개요", ":</w>"], ["s", ",</w>"], ["계획", ":</w>"], ["적용", "한다.</w>"], ["기술", "</w>"], ["설", "계</w>"], ["서", "비"], ["원칙", ":</w>"], ["리스크", ":</w>"], ["--", "-</w>"], ["모", "듈"], ["4", "</w>"], ["체", "계"], ["지", "한다.</w>"], ["예외", "</w>"], ["6", "</w>"], ["가", "</w>"], ["결", "정</w>"], ["점", "</w>"], ["지연", "</w>"], ["요약", "한다.</w>"], ["외", "부</w>"], ["구", "간"], ["적", "합"], ["전", "환"], ["상", "태"], ["상태", "</w>"], ["용", "</w>"], ["2026-0", "8"], ["0", "</w>"], ["분", "</w>"], ["원", "</w>"], ["모듈", "</w>"], ["8", "</w>"], ["산", "출"], ["물", ":</w>"], ["체크리스트", ":</w>"], ["표", ":</w>"], ["비", "고</w>"], ["보", "수</w>"], ["산출", "물:</w>"], ["구", "분</w>"], [")", "</w>"], ["신", "뢰"], ["위", "해</w>"], ["소", "요</w>"], ["비율", "</w>"], ["원칙", "을</w>"], ["인터페이", "스</w>"], ["주", "</w>"], ["적합", "률</w>"], ["리", "드"], ["리드", "타"], ["리드타", "임</w>"], ["일", ",</w>"], ["재", "검토</w>"], ["이", "슈"], ["이슈", "</w>"], ["재발", "률</w>"], ["주기", "</w>"], ["건", "수</w>"], ["데", "이"], ["---|", "---</w>"], ["서비", "스"], ["2026-1", "0"], ["및", "</w>"], ["절차", "를</w>"], ["요", "건"], ["소", "</w>"], ["2026-0", "7"], ["구", "성"], ["비", "]["], ["보안", "</w>"], ["---|", "---|---</w>"], ["2026-0", "9"], ["분", "리"], ["서", "로</w>"], ["됨", ";</w>"], ["순", "서로</w>"], ["분", "기별</w>"], ["분", "석"], ["증", "빙"], ["대", "외"], ["구간", "에서"], ["입", "력</w>"], ["2026-0", "6-"], ["결", "성</w>"], ["신뢰", "도</w>"], ["무", "결성</w>"], ["구", "조"], ["공", "유"], ["인", ":</w>"], ["이", "력</w>"], ["고", ",</w>"], ["하", "고,</w>"], ["증빙", "</w>"], ["단계", "별</w>"], ["일", "반"], ["제", "한</w>"], ["2026-0", "5"], ["범", "위"], ["출", "</w>"], ["집", "계</w>"], ["고", "리"], ["[", "대외"], ["[대외", "비]["], ["전", "용</w>"], ["는", "다.</w>"], ["최", "소</w>"], ["수", "준</w>"], ["2", "</w>"], ["게이트", "</w>"], ["며", ",</w>"], ["안내", "</w>"], ["히", "</w>"], ["확", "히</w>"], ["재발", "</w>"], ["리", "뷰"], ["점검", ",</w>"], ["반", "기별</w>"], ["모", "의</w>"], ["명", "확히</w>"], ["우", "선"], ["월", "</w>"], ["수", "행"], ["범위", ":</w>"], ["정", "의"], ["우", "</w>"], ["기술", "]</w>"], ["시뮬레이션", "</w>"], ["기록", "을</w>"], ["보관", "한다.</w>"], ["통", "제</w>"], ["기록", "은</w>"], ["코", "어</w>"], ["절차", ":</w>"], ["치", ":</w>"], ["개", "월</w>"], ["보관", "</w>"], ["2026-1", "1"], ["주기", ":</w>"], ["종", "합</w>"], ["리뷰", ",</w>"], ["라", "인:</w>"], ["담", "당"], ["담당", "실</w>"], ["준", "법"], ["준법", "검토</w>"], ["임", "원</w>"], ["보관", ":</w>"], ["수", "집"], ["따", "르"], ["흐", "름"], ["저", "하"], ["정", "보"], ["관리", "한다.</w>"], ["[", "기"], ["[기", "밀"], ["[기밀", "]["], ["비", "</w>"], ["경", "로</w>"], ["통제", ":</w>"], ["요", "구"], ["개", "</w>"], ["기", "</w>"], ["────────", "────"], ["로그", ",</w>"], ["시", "스"], ["시스", "템"], ["사", "항"], ["정", "]</w>"], ["계획", "</w>"], ["만", "</w>"], ["202", "7"], ["_", "0"], ["경로", "는</w>"], ["결", "과</w>"], ["2026-0", "4"], ["원", "인</w>"], ["목", "표"], ["로", "직"], ["진", "행한다.</w>"], ["도", "("], ["평", "균"], ["평균", "</w>"], ["중", "</w>"], ["통", "합"], ["변경", "은</w>"], ["조", "정</w>"], ["조", "</w>"], ["알", "고리"], ["알고리", "즘"], ["알고리즘", "</w>"], ["전", "</w>"], ["모", "드"], ["설", "정</w>"], ["정", "은</w>"], ["대", "</w>"], ["권", "한</w>"], ["운영", "팀</w>"], ["관리", "</w>"], ["공", "개</w>"], ["처리", "</w>"], ["유", "지한다.</w>"], ["규", "칙"], ["안정", "화"], ["수", "행한다.</w>"], ["확", "보"], ["펄", "스"], ["적용", "</w>"], ["방", "향"], ["체크리스트", ",</w>"], ["율", "</w>"], ["균", "형"], ["전환", "</w>"], ["가", "중"], ["가중", "치</w>"], ["보", "고"], ["분", "배"], ["량", "</w>"], ["작성", "</w>"], ["하", "이"], ["신", "호"], ["프", "레"], ["프레", "임"], ["구간에서", "</w>"], ["v", "</w>"], ["_", "T"], ["체계", "의</w>"], ["고", "수준</w>"], ["구조", "와</w>"], ["을", "("], ["을(", "를"], ["을(를", ")</w>"], ["구성", "으로</w>"], ["정의", "한다.</w>"], ["m", "s,</w>"], ["신호", "대"], ["신호대", "잡"], ["신호대잡", "음"], ["신호대잡음", "비</w>"], ["d", "B"], ["dB", ",</w>"], ["처리", "량</w>"], ["M", "b"], ["Mb", "p"], ["Mbp", "s,</w>"], ["전", "력</w>"], ["W", ",</w>"], ["동", "작"], ["동작", "</w>"], ["온", "도</w>"], ["상", "한</w>"], ["C", "를</w>"], ["목표", "로</w>"], ["튜", "닝"], ["튜닝", "</w>"], ["요약", ":</w>"], ["윈", "도"], ["윈도", "우</w>"], ["길", "이"], ["길이", ":</w>"], ["프레임", "으로</w>"], ["지연", "-"], ["균형", "이</w>"], ["감", "쇠"], ["감쇠", "율"], ["감쇠율", ":</w>"], ["0", "."], ["오", "탐"], ["오탐", "</w>"], ["스", "코어</w>"], ["임", "계"], ["임계", "치:</w>"], ["모", "드</w>"], ["파", "라"], ["파라", "미"], ["파라미", "터</w>"], ["조", "정은</w>"], ["환경", "에서"], ["환경에서", "만</w>"], ["수행", "되"], ["수행되", "며</w>"], ["분배", ":</w>"], ["보", "조</w>"], ["요구", "하"], ["요구하", "며,</w>"], ["로그", "는</w>"], ["흐름", "도("], [")", ":</w>"], ["_", "1"], ["사항", "</w>"], ["[", "일반"], ["[일반", "]</w>"], ["가", "능</w>"], ["센", "서"], ["지연-", "정확도</w>"], ["실", "환경"], ["실환경", "</w>"], ["적용", "과</w>"], ["안정", "적"], ["분석", "</w>"], ["문", "의</w>"], ["보안", ":</w>"], ["무", "</w>"], ["윈", "드</w>"], ["반", "출</w>"], ["편", "차"], ["실", "행"], ["기", "법"], ["함", "</w>"], ["통제", ",</w>"], ["루프", ":</w>"], ["확", "인</w>"], ["공유", ",</w>"], ["결", "함</w>"], ["평", "가"], ["--", "--"], ["F", "A"], ["FA", "Q"], ["계", "층"], ["스", "펙"], ["스펙", "트"], ["스펙트", "럼"], ["요건", ":</w>"], ["데이", "터"], ["기준", "과</w>"], ["기법", ":</w>"], ["절차", "</w>"], ["2026-1", "2"], ["방향", "을</w>"], ["보", "존"], ["보존", "을</w>"], ["준", "수"], ["준수", "한다.</w>"], ["운영", ":</w>"], ["따르", "며</w>"], ["예외", "는</w>"], ["지연", "과</w>"], ["편차", "를</w>"], ["중", "점</w>"], ["배", "포"], ["배포", "를</w>"], ["금", "지한다.</w>"], ["실행", "</w>"], ["레", "지"], ["레지", "스"], ["레지스", "터</w>"], ["처리", "율</w>"], ["정", "합"], ["검", "사"], ["관", "</w>"], ["반", "복"], ["유", "형"], ["신", "</w>"], ["모드", "로</w>"], ["추", "가</w>"], ["안정적", ";</w>"], ["게이트", "와</w>"], ["^", "</w>"], ["전환", "한다.</w>"], ["블", "랙"], ["FAQ", "개선</w>"], ["-", "02"], ["력", "]</w>"], ["응", "대</w>"], ["안정화", "됨;</w>"], ["무관함", ";</w>"], ["1", "2"], ["경", "계"], ["감", "소"], ["감소", ";</w>"], ["표", ",</w>"], ["정책", "]</w>"], ["데이", "터</w>"], ["완", "화"], ["보고", "한다.</w>"], ["분류", "한다.</w>"], ["적", "</w>"], ["지", "원"], ["고객", "안내</w>"], ["추", "적</w>"], ["────────", "────────"], ["1", "4"], ["1", "0"], ["개선", "됨;</w>"], ["2027", "-0"], ["반복", "한다.</w>"], ["2026-0", "3"], ["서", "_T"], ["운영", "]</w>"], ["R", "-"], ["개", "발"], ["생", "</w>"], ["서비스", "응대</w>"], ["발", "생</w>"], ["전", "성</w>"], ["주", "요</w>"], ["수", "준"], ["레이", "븐"], ["검토", ":</w>"], ["기", "반"], ["안", "전성</w>"], ["장", "</w>"], ["락", ",</w>"], ["재현", "성</w>"], ["확보", "를</w>"], ["데이터", "셋"], ["데이터셋", "</w>"], ["버", "전</w>"], ["규칙", "을</w>"], ["리스크", "는</w>"], ["[대외비][", "기술]</w>"], ["의", "사"], ["의사", "결정</w>"], ["분", "기"], ["동", "일</w>"], ["수준", "의</w>"], ["갖", "는다.</w>"], ["누", "락,</w>"], ["지연", "으로</w>"], ["1", "1"], ["고객", "지원"], ["운영", "표준</w>"], ["경로", "와</w>"], ["링", "</w>"], ["요", "건</w>"], ["평가", "는</w>"], ["환경", "과</w>"], ["교", "란"], ["교란", "</w>"], ["환경", "을</w>"], ["분리", "해</w>"], ["저하", ",</w>"], ["정합", "성</w>"], ["백", "</w>"], ["터", "를</w>"], ["5", "%,</w>"], ["게", "</w>"], ["S", "W"], ["영", "향"], ["없", "이</w>"], ["수", "정"], ["수정", "하"], ["수정하", "지</w>"], ["않", "는다.</w>"], ["패", "</w>"], ["전", "파"], ["전파", "를</w>"], ["검증", ":</w>"], ["1", "3"], ["실", "패</w>"], ["스", "는</w>"], ["차", "단"], ["차", "선"], ["차선", "의</w>"], ["따", "른"], ["따른", "다.</w>"], ["현", "장</w>"], ["경계", "에서"], ["연", "구"], ["차단", "한다.</w>"], ["-", "3"], ["자", "</w>"], ["우선", ",</w>"], ["단", "일</w>"], ["경계에서", "의</w>"], ["책", "임</w>"], ["분리", "를</w>"], ["고객", "</w>"], ["대응", ":</w>"], ["플", "랫"], ["플랫", "폼"], ["플랫폼", "</w>"], ["하이", "게이트</w>"], ["시뮬레이션", ":</w>"], ["롤", "백</w>"], ["절차", "로</w>"], ["용", "을</w>"], ["메", "시"], ["메시", "지</w>"], ["검증", "은</w>"], ["시뮬레이션", ",</w>"], ["재현", ",</w>"], ["시험", "의</w>"], ["션", "</w>"], ["2026-08", "-1"], ["수집", ":</w>"], ["요건", "은</w>"], ["통", "신</w>"], ["약", "</w>"], ["2026-09", "-2"], ["출", "력]</w>"], ["완화", "는</w>"], ["펄스", "쉴"], ["펄스쉴", "드</w>"], ["C", "S"], ["표", "준"], ["분류", "</w>"], ["구성", "한다.</w>"], ["이", "언"], ["루프", "</w>"], ["2026-08", "-2"], ["통합", ":</w>"], ["크", "</w>"], ["정", "규"], ["정규", "화"], ["이", "관</w>"], ["재현", ":</w>"], ["2026-10", "-1"], ["2026-06-", "1"], ["인터페이", "스는</w>"], ["아", "르"], ["아르", "크</w>"], ["방", "산"], ["방산", "연구"], ["방산연구", "본"], ["방산연구본", "부</w>"], ["즉", "시</w>"], ["정", "리"], ["사", "고</w>"], ["판", "정]</w>"], ["라", "이트"], ["라이트", "스"], ["라이트스", "톤"], ["라이트스톤", "</w>"], ["국", "방"], ["국방", "솔"], ["국방솔", "루"], ["국방솔루", "션</w>"], ["스펙트럼", "윈드</w>"], ["급", "</w>"], ["세", "이"], ["세이", "블"], ["세이블", "</w>"], ["항", "공"], ["항공", "전"], ["항공전", "자</w>"], ["조", "치</w>"], ["필", "요"], ["기", "획"], ["합", "을</w>"], ["스", "키"], ["스키", "마"], ["스키마", "를</w>"], ["표준", "으로</w>"], ["오", "메"], ["오메", "가</w>"], ["전", "술"], ["전술", "플랫폼</w>"], ["2027-0", "1"], ["결", "합을</w>"], ["낮", "추"], ["CS", "운영팀</w>"], ["202", "5"], ["시험", ":</w>"], ["위", "</w>"], ["낮추", "기</w>"], ["-0", "9</w>"], ["2026-07", "-2"], ["8", "%</w>"], ["추", "론"], ["서", "브"], ["서브", "시스템"], ["2026-10", "-2"], ["2026-07", "-1"], ["제", "어</w>"], ["노", "드"], ["노", "바"], ["노바", "</w>"], ["디", "펜"], ["디펜", "스</w>"], ["시스템", "즈"], ["시스템즈", "</w>"], ["게이트", "웨"], ["게이트웨", "이"], ["2026-05", "-2"], ["센서", "</w>"], ["고", "정"], ["고정", "한다.</w>"], ["5", "%</w>"], ["저하", "</w>"], ["명", "</w>"], ["아", "이언"], ["아이언", "루프</w>"], ["2026-09", "-1"], ["H", "G"], ["HG", "-2"], ["HG-2", "</w>"], ["로직", "을</w>"], ["축", "약</w>"], ["1", "7"], ["고객지원", "팀</w>"], ["구간에서", "는</w>"], ["인", "수</w>"], ["코", "어"], ["-0", "5</w>"], ["+", "</w>"], ["4", "%,</w>"], ["공유", "</w>"], ["서비스", "운영팀</w>"], ["2026-06-", "2"], ["장", "을</w>"], ["서", "명</w>"], ["검증", "을</w>"], ["정리", "한다.</w>"], ["모", "델"], ["단", "</w>"], ["보", "장을</w>"], ["임", "무</w>"], ["스", "케"], ["스케", "줄"], ["스케줄", "러"], ["2", "0"], ["내", "</w>"], ["유형", "</w>"], ["정책", "</w>"], ["이", "중</w>"], ["블랙", "레이븐"], ["블랙레이븐", "</w>"], ["단", "계</w>"], ["1", "6"], ["-0", "1</w>"], ["방", "지"], ["장", "치</w>"], ["자", "가"], ["자가", "진"], ["자가진", "단</w>"], ["블", "록"], ["방지", "와</w>"], ["-0", "4</w>"], ["구", "</w>"], ["[기밀][", "정책]</w>"], ["업", "무</w>"], ["불", "필요"], ["불필요", "한</w>"], ["용", "어</w>"], ["사", "용을</w>"], ["피", "한다.</w>"], ["검사", "기"], ["-0", "6</w>"], ["9", "%</w>"], ["회", "귀"], ["회귀", "</w>"], ["시험", "</w>"], ["업", "</w>"], ["안내", "를</w>"], ["2026-11", "-1"], ["접", "수</w>"], ["규", "제</w>"], ["협", "업</w>"], ["-0", "3</w>"], ["6", "%,</w>"], ["민", "감"], ["민감", "</w>"], ["전", "이</w>"], ["모델", "을</w>"], ["적용", "하고,</w>"], ["정책", "으로</w>"], ["됨", "</w>"], ["서비스", "기획"], ["서비스기획", "팀</w>"], ["필", "요</w>"], ["다", "중</w>"], ["-0", "7</w>"], ["펄스", "-"], ["펄스-", "알"], ["펄스-알", "파"], ["펄스-알파", "</w>"], ["[기밀][", "기술]</w>"], ["사", "실</w>"], ["기반", "으로</w>"], ["간", "결"], ["간결", "하"], ["간결하", "게</w>"], ["안내", "한다.</w>"], ["사", "전"], ["일반", "</w>"], ["정보", "</w>"], ["-0", "8</w>"], ["P", "S"], ["PS", "-"], ["PS-", "3</w>"], ["기록", "한다.</w>"], ["2025", "-1"], ["2026-05", "-1"], ["리", "</w>"], ["2", "일</w>"], ["고객", "의</w>"], ["정보", "를</w>"], ["설", "계"], ["우선", "순"], ["[", "출력]</w>"], ["노드", ",</w>"], ["스케줄러", ",</w>"], ["록", "</w>"], ["우선순", "위</w>"], ["흐름도(", "스"], ["[", "수집"], ["전", "처리"], ["전처리", "]</w>"], ["검사", "]</w>"], ["에", "</w>"], ["[", "보"], ["-02", "</w>"], ["회", "의"], ["오", "로"], ["오로", "라"], ["오로라", "윈드</w>"], ["1", "%</w>"], ["서_T", "-1"], ["코어", ",</w>"], ["라", "</w>"], ["1", "5"], ["기준", "을</w>"], ["따", "라</w>"], ["8", "%,</w>"], ["체계", ":</w>"], ["하이", "브"], ["하이브", "리"], ["하이브리", "지</w>"], ["게이트웨이", ",</w>"], ["0", "%</w>"], ["타", "</w>"], ["시험", "을</w>"], ["병", "행한다.</w>"], ["영향", "도</w>"], ["[대외비][", "운영]</w>"], ["파", "악"], ["파악", "</w>"], ["2", "%</w>"], ["┌", "────────────"], ["┐", "</w>"], ["└", "────────────────"], ["└────────────────", "────────"], ["└────────────────────────", "────────────"], ["└────────────────────────────────────", "┘"], ["└────────────────────────────────────┘", "</w>"], ["0.", "2"], ["1", "8"], ["[", "경로"], ["_", "2"], ["[", "판정]</w>"], ["2026-04", "-1"], ["SW", "-"], ["SW-", "5</w>"], ["항", "목"], ["측", "정]</w>"], ["2027", "-02"], ["B", "R-"], ["BR-", "9</w>"], ["스", "틸"], ["스틸", "링</w>"], ["-3", "0</w>"], ["일", "관"], ["4", "일</w>"], ["서브시스템", ",</w>"], ["7", "%,</w>"], ["I", "R-"], ["IR-", "7</w>"], ["로직", "은</w>"], ["벡", "터를</w>"], ["단계", "적"], ["단계적", "으로</w>"], ["정규화", "하고,</w>"], ["안정", "도</w>"], ["구간", "별</w>"], ["정책", "을</w>"], ["4", "%</w>"], ["블록", ",</w>"], ["계층", ",</w>"], ["2026-06-", "0"], ["센", "터</w>"], ["스펙트럼", "-"], ["스펙트럼-", "찰"], ["스펙트럼-찰", "리</w>"], ["7", "주</w>"], ["9", "%,</w>"], ["블랙", "-"], ["블랙-", "에"], ["블랙-에", "코"], ["블랙-에코", "</w>"], ["2026-04", "-2"], ["게이트", "-"], ["게이트-", "델"], ["게이트-델", "타</w>"], ["처", "</w>"], ["3", "일</w>"], ["보", "호"], ["블", "루"], ["블루", "실"], ["블루실", "드</w>"], ["매", "트"], ["매트", "릭"], ["매트릭", "스"], ["자", "료"], ["화", "</w>"], ["0.", "3"], ["검사기", ",</w>"], ["5", "일</w>"], ["규칙", "은</w>"], ["규", "약"], ["규약", "을</w>"], ["따르", "며,</w>"], ["충", "돌"], ["충돌", "</w>"], ["3", "%</w>"], ["유형", ",</w>"], ["기준", "표,</w>"], ["응", "답"], ["응답", "</w>"], ["할", "</w>"], ["서_T", "-0"], ["보", "</w>"], ["6", "일</w>"], ["지", "원</w>"], ["카", "테"], ["카테", "고리"], ["모", "니"], ["모니", "터"], ["모니터", "링</w>"], ["필", "수</w>"], ["역", "할</w>"], ["서비", "스</w>"], ["추론", "</w>"], ["단계", "는</w>"], ["다", "단계</w>"], ["필", "터를</w>"], ["거", "쳐"], ["거쳐", "</w>"], ["품질", "에</w>"], ["경로", "를</w>"], ["분기", "한다.</w>"], ["2", "%,</w>"], ["회", "수</w>"], ["정", "기</w>"], ["6", "주</w>"], ["성", "과</w>"], ["루프", "-"], ["루프-", "브"], ["루프-브", "라"], ["루프-브라", "보</w>"], ["체계", "를</w>"], ["포", "함"], ["포함", "한다.</w>"], ["7", "%</w>"], ["아", "키"], ["아키", "텍"], ["아키텍", "처</w>"], ["전", "장"], ["전장", "SW"], ["전장SW", "개발"], ["전장SW개발", "실</w>"], ["저", "장"], ["2026-12", "-1"], ["인", "수"], ["업", "데"], ["센서", "융"], ["센서융", "합"], ["센서융합", "개발"], ["센서융합개발", "팀</w>"], ["이트", "</w>"], ["유", "출</w>"], ["이", "상</w>"], ["임", "시</w>"], ["3", "주</w>"], ["[기밀][", "운영]</w>"], ["1", "9"], ["품질", "보"], ["품질보", "증"], ["품질보증", "실</w>"], ["률", ",</w>"], ["라", "인</w>"], ["요", "청"], ["처리", "한다.</w>"], ["3", "%,</w>"], ["2026-11", "-2"], ["평", "가</w>"], ["업데", "이트</w>"], ["기반", "</w>"], ["[대외비][", "정책]</w>"], ["복", "구</w>"], ["-3", "1</w>"], ["방", "지</w>"], ["8", "주</w>"], ["통합", "시험"], ["통합시험", "센터</w>"], ["2026-03", "-1"], ["기준", ":</w>"], ["매트릭스", ",</w>"], ["단계", ")</w>"], ["통", "</w>"], ["등", "록</w>"], ["분리", "</w>"], ["4", "주</w>"], ["5", "건</w>"], ["시", "간</w>"], ["개선", "됨</w>"], ["조", "달"], ["(", "총"], ["(총", "</w>"], ["수행", "</w>"], ["도", "를</w>"], ["리", "를</w>"], ["4", "건</w>"], ["회의", "록"], ["기", "체"], ["기체", "/"], ["기체/", "구조"], ["기체/구조", "해"], ["기체/구조해", "석"], ["기체/구조해석", "팀</w>"], ["위", "한</w>"], ["정책", ":</w>"], ["상", "시</w>"], ["정보", "보호"], ["S", "L"], ["SL", "A"], ["강", "화"], ["강화", "를</w>"], ["만", "료"], ["만료", "("], ["일", ")</w>"], ["승", "인:</w>"], ["요청", "은</w>"], ["자료", "</w>"], ["징", "후</w>"], ["검토", "를</w>"], ["플", "로"], ["플로", "우</w>"], ["비", "인"], ["비인", "가</w>"], ["탐", "지</w>"], ["등", "급</w>"], ["부서", "</w>"], ["가", "이"], ["정보보호", "실</w>"], ["통", "과</w>"], ["찰", "</w>"], ["우선", "</w>"], ["능", "/"], ["6", "건</w>"], ["가이", "드"], ["확보", "</w>"], ["레이븐", "코어</w>"], ["[", "극"], ["[극", "비]["], ["인", "원</w>"], ["체계", "설계"], ["체계설계", "실</w>"], ["2026-03", "-2"], ["개선", "과</w>"], ["일관", "되"], ["일관되", "게</w>"], ["재발", "률,</w>"], ["통", "과"], ["통과", "율"], ["통과율", "을</w>"], ["중", "심"], ["중심", "으로</w>"], ["구조", ":</w>"], ["사전", "검토</w>"], ["통합", "검증</w>"], ["인수", "검증"], ["인수검증", "(총</w>"], ["분석", ":</w>"], ["상", "관</w>"], ["분석", "과</w>"], ["재현", "</w>"], ["시나리오", "로</w>"], ["원", "인"], ["원인", "을</w>"], ["개", "정"], ["개정", "을</w>"], ["분류", "표,</w>"], ["중", "대</w>"], ["중", "지</w>"], ["보", "통</w>"], ["보", "완"], ["보완", "</w>"], ["경", "미"], ["경미", "</w>"], ["관", "찰</w>"], ["5", "주</w>"], ["거", "버"], ["거버", "넌"], ["이", "력"], ["이력", "을</w>"], ["8", "5%,</w>"], ["조달", "/"], ["흐름도(", "선"], ["흐름도(선", "형"], ["흐름도(선형", "):</w>"], ["[", "입"], ["[입", "력]</w>"], ["[", "정규화"], ["[정규화", "]</w>"], ["[", "품질"], ["[품질", "게이트"], ["[품질게이트", "]</w>"], ["[", "추론"], ["[추론", "]</w>"], ["[", "로그"], ["[로그", "저장"], ["[로그저장", "]</w>"], ["[보", "수"], ["[보수", "모드"], ["[보수모드", "]</w>"], ["9", "0"], ["감", "소</w>"], ["규", "명"], ["격", "리를</w>"], ["6", "%</w>"], ["고", "려"], ["2026-", "02"], ["배", "송"], ["2026-12", "-2"], ["흐름도(스", "택"], ["흐름도(스택", "):</w>"], ["[", "응"], ["[응", "용</w>"], ["계층", "]</w>"], ["[", "결정</w>"], ["로직", "]</w>"], ["[", "정합성</w>"], ["[수집", "/"], ["[수집/", "전처리]</w>"], ["2027-01", "-2"], ["계", "약"], ["해", "결"], ["8", "4%,</w>"], ["품", "</w>"], ["조달/", "계약"], ["조달/계약", "관리"], ["조달/계약관리", "팀</w>"], ["조", "치:</w>"], ["스", "킹"], ["스킹", "</w>"], ["9", "1"], ["마", "스킹</w>"], ["사", "와</w>"], ["인", "사전"], ["인사전", "략"], ["인사전략", "실</w>"], ["회의록", "_0"], ["카테고리", "</w>"], ["3", "건</w>"], ["오", "류"], ["흐름도(스", "윔"], ["흐름도(스윔", "레"], ["흐름도(스윔레", "인"], ["흐름도(스윔레인", "):</w>"], ["┌────────────", "─"], ["┌─────────────", "</w>"], ["센서", "계층"], ["센서계층", "</w>"], ["────────────", "─"], ["─────────────", "┐</w>"], ["[수집", "]</w>"], ["[", "전처리]</w>"], ["[", "신뢰"], ["[신뢰", "도"], ["[신뢰도", "표"], ["[신뢰도표", "시"], ["[신뢰도표시", "]</w>"], ["┌────────────", "</w>"], ["────────────", "──"], ["──────────────", "┐</w>"], ["[", "정책"], ["[정책", "적용"], ["[정책적용", "]</w>"], ["흐름도(", "분기"], ["흐름도(분기", "):</w>"], ["[", "데이터"], ["[데이터", "수집"], ["[데이터수집", "]</w>"], ["[", "정합"], ["[정합", "성"], ["[정합성", "검사]</w>"], ["[", "분기"], ["[분기", "판정]</w>"], ["[경로", "A"], ["[경로A", "]</w>"], ["[경로", "B"], ["[경로B", "]</w>"], ["[", "요약"], ["[요약", "출력]</w>"], ["긴", "급</w>"], ["8", "일,</w>"], ["재", "문의</w>"], ["안", "전</w>"], ["조", "사와</w>"], ["8", "8%,</w>"], ["외", "</w>"], ["흐름도(", "루프"], ["흐름도(루프", "):</w>"], ["[", "초"], ["[초", "기"], ["[초기", "화"], ["[초기화", "]</w>"], ["[", "측정]</w>"], ["[보", "정]</w>"], ["+", "----"], ["+----", "----"], ["+--------", "---</w>"], ["[", "재"], ["[재", "측정]</w>"], ["<", "----"], ["<----", "--"], ["<------", "---"], ["<---------", "+</w>"], ["프로", "세"], ["프로세", "스"], ["무관함", "</w>"], ["안정화", "됨</w>"], ["8", "9%,</w>"], ["계획", "_T"], ["구", "성</w>"], ["90", "%,</w>"], ["91", "%,</w>"], ["규명", "한다.</w>"], ["승", "인"], ["12", "%,</w>"], ["안정", "성"], ["안정", "성</w>"], ["고객지원", "실</w>"], ["배송", "</w>"], ["2027-0", "3"], ["2", "3"], ["2", "2"], ["14", "일,</w>"], ["/", "보안</w>"], ["항목", "</w>"], ["충", "족"], ["충족", "</w>"], ["2026-0", "1"], ["서브시스템", "을(를)</w>"], ["9", "2%,</w>"], ["9", "5%,</w>"], ["협", "력"], ["준", "비</w>"], ["안정적", "</w>"], ["2", "1"], ["차", "</w>"], ["담", "</w>"], ["사", "전</w>"], ["지", "침"], ["2025-1", "2"], ["계층", "을(를)</w>"], ["8", "6%,</w>"], ["9", "4%,</w>"], ["하", "고</w>"], ["장", "기</w>"], ["유", "지"], ["제", "품</w>"], ["3", "5"], ["2027-02", "-1"], ["2", "6"], ["15", "일,</w>"], ["규", "정</w>"], ["거버넌", "스</w>"], ["파", "트"], ["파트", "너"], ["방향", "과</w>"], ["검토", "의</w>"], ["요", "소"], ["요소", ":</w>"], ["모듈", "과</w>"], ["경계", "를</w>"], ["성", "능/"], ["성능/", "안정성"], ["성능/안정성", "/보안</w>"], ["영향", "도를</w>"], ["항목", "으로</w>"], ["평가", "한다.</w>"], ["시뮬레이션", "과</w>"], ["기록", "과</w>"], ["비", "용을</w>"], ["함", "께"], ["함께", "</w>"], ["고려", "한다.</w>"], ["회의", "록</w>"], ["산", "정</w>"], ["요구", "치</w>"], ["오류", "율</w>"], ["최", "소"], ["최소", "화</w>"], ["12", "일,</w>"], ["_", "02"], ["트", "</w>"], ["1", "차</w>"], ["수", "립"], ["인", "증"], ["수", "출</w>"], ["적합", "성</w>"], ["11", "%</w>"], ["17", "일,</w>"], ["해", "외</w>"], ["파트너", "</w>"], ["범위", "</w>"], ["2", "인</w>"], ["16", "일,</w>"], ["8", "7%,</w>"], ["2", "4"], ["2027-01", "-1"], ["8", "2%,</w>"], ["9", "3%,</w>"], ["시", "간"], ["시간", ",</w>"], ["템", "플"], ["템플", "릿"], ["SLA", "</w>"], ["1", "건</w>"], ["유", "지</w>"], ["브", "랜"], ["브랜", "드"], ["브랜드", "관리"], ["브랜드관리", "실</w>"], ["10", "%,</w>"], ["산", "</w>"], ["1", "5%,</w>"], ["13", "%,</w>"], ["2", "9"], ["계", "정</w>"], ["게이트웨이", "을(를)</w>"], ["14", "%,</w>"], ["9", "6%,</w>"], ["-0", "9"], ["11", "%,</w>"], ["2025-1", "0"], ["장", "애"], ["장애", "</w>"], ["번", "호"], ["번호", "</w>"], ["다", "</w>"], ["3", "6"], ["검사기", "을(를)</w>"], ["9", "C를</w>"], ["8", "3%,</w>"], ["테", "스"], ["테스", "트</w>"], ["7", "일,</w>"], ["가", "능"], ["10", "일,</w>"], ["11", "일,</w>"], ["커", "뮤"], ["커뮤", "니"], ["커뮤니", "케"], ["커뮤니케", "이"], ["9", "5%</w>"], ["가", "동"], ["5", "점</w>"], ["한", "다</w>"], ["8", "Mbps,</w>"], ["시험", "계획"], ["상", "위</w>"], ["절차", "와</w>"], ["18", "일,</w>"], ["시나리오", "</w>"], ["2", "건</w>"], ["2025", "-09"], ["2025-1", "1"], ["안내", "_0"], ["안내", "_1"], ["1", "ms,</w>"], ["7", "C를</w>"], ["2", "7"], ["반", "</w>"], ["갱", "신</w>"], ["정", "의</w>"], ["재", "무"], ["재무", "기획"], ["재무기획", "실</w>"], ["통", "화</w>"], ["2", "점</w>"], ["노드", "을(를)</w>"], ["3", "2"], ["블록", "을(를)</w>"], ["3", "0"], ["5", "C를</w>"], ["6", "점</w>"], ["2", "1%</w>"], ["2", "4%</w>"], ["유", "</w>"], ["10", "%</w>"], ["13", "일,</w>"], ["기준", "_1"], ["2", "2%</w>"], ["[극비][", "기술]</w>"], ["5", "Mbps,</w>"], ["1", "Mbps,</w>"], ["5", "0%</w>"], ["14", "%</w>"], ["1", "8%</w>"], ["기준", "_0"], ["가이드", "_1"], ["4", "로</w>"], ["4", "3"], ["코어", "을(를)</w>"], ["4", "점</w>"], ["프로", "토"], ["프로토", "콜"], ["속", "</w>"], ["건", "은</w>"], ["규", "</w>"], ["12", "건</w>"], ["8", "8%</w>"], ["2026-09-2", "5</w>"], ["12", "%</w>"], ["7", "로</w>"], ["8", "W,</w>"], ["흐름", "</w>"], ["9", "ms,</w>"], ["8", "점</w>"], ["8", "C를</w>"], ["7", "ms,</w>"], ["흐름", ":</w>"], ["특", "수</w>"], ["공", "급</w>"], ["9", "3%</w>"], ["신", "규</w>"], ["완화", "</w>"], ["1", "5%</w>"], ["유지", "성과</w>"], ["지", "식"], ["지식", "재"], ["지식재", "산</w>"], ["보호", "</w>"], ["13", "%</w>"], ["9", "건</w>"], ["FAQ", "</w>"], ["공", "지"], ["정의", ":</w>"], ["처리", ":</w>"], ["이", "용</w>"], ["알", "림"], ["알림", "</w>"], ["문", "구</w>"], ["기술", "검토"], ["1", "점</w>"], ["8", "ms,</w>"], ["설계", "요건"], ["7", "점</w>"], ["2027-02", "-2"], ["프로세스", "의</w>"], ["일관", "성과</w>"], ["품질", "을</w>"], ["확보", "한다.</w>"], ["긴", "급"], ["긴급", "도"], ["긴급도", ",</w>"], ["후", "속</w>"], ["필요", "도를</w>"], ["기준", "으로</w>"], ["SLA", ":</w>"], ["접", "수"], ["접수", "-"], ["접수-", "분류"], ["접수-분류", "-"], ["접수-분류-", "해결"], ["접수-분류-해결", "-"], ["접수-분류-해결-", "검증"], ["접수-분류-해결-검증", "-"], ["접수-분류-해결-검증-", "회"], ["접수-분류-해결-검증-회", "신</w>"], ["운영", "한다.</w>"], ["정보", "는</w>"], ["컬", "레이션"], ["컬레이션", ":</w>"], ["미", "해결"], ["미해결", "</w>"], ["상", "향"], ["상향", "</w>"], ["템플릿", ",</w>"], ["분석", "표"], ["분석표", "</w>"], ["타", "이"], ["타이", "머"], ["타이머", "</w>"], ["사", "유</w>"], ["기", "본</w>"], ["전", "담</w>"], ["배", "정</w>"], ["체", "</w>"], ["체크리스트", "</w>"], ["대외", "협력"], ["대외협력", "실</w>"], ["7", "건</w>"], ["론", "칭"], ["론칭", "</w>"], ["8", "6%</w>"], ["계", "약</w>"], ["9", "일,</w>"], ["3", "4"], ["5", "단계)</w>"], ["_0", "4"], ["2026-01", "-2"], ["예", "시"], ["예시", ":</w>"], ["이", "내</w>"], ["요약", "</w>"], ["콜", "센터</w>"], ["6", "Mbps,</w>"], ["2026-08", "-09</w>"], ["명", "세"], ["0", "점</w>"], ["5", "로</w>"], ["불", "만</w>"], ["스", "컬레이션:</w>"], ["계획", "_1"], ["관리", ":</w>"], ["3", "인</w>"], ["서", "_1"], ["1", "9%</w>"], ["2", "C를</w>"], ["3", "0</w>"], ["5", "ms,</w>"], ["교", "육"], ["교육", "</w>"], ["2026-02", "-2"], ["목표", "</w>"], ["1", "C를</w>"], ["3", "ms,</w>"], ["9", "W,</w>"], ["3", "로</w>"], ["2026-08-2", "3</w>"], ["3", "점</w>"], ["2026-06-1", "7</w>"], ["7", "W,</w>"], ["프로토콜", "</w>"], ["개요", "_T"], ["3", "단계)</w>"], ["에", "스컬레이션:</w>"], ["위", "반</w>"], ["|", "---</w>"], ["17", "%</w>"], ["16", "%</w>"], ["2026-08-1", "8</w>"], ["26", "개월</w>"], ["8", "건</w>"], ["_0", "8"], ["9", "4%</w>"], ["2026-02", "-1"], ["비", "밀"], ["비밀", "번호</w>"], ["2026-07-1", "6</w>"], ["7", "Mbps,</w>"], ["3", "W,</w>"], ["2026-10-1", "3</w>"], ["시스템", "</w>"], ["6", "ms,</w>"], ["계획_T", "-0"], ["2026-08-2", "8</w>"], ["0", "C를</w>"], ["6", "C를</w>"], ["2026-09-1", "9</w>"], ["매트릭스", ":</w>"], ["영향", "도("], ["영향도(", "낮"], ["영향도(낮", "음"], ["영향도(낮음", "/"], ["영향도(낮음/", "중"], ["영향도(낮음/중", "간"], ["영향도(낮음/중간", "/"], ["영향도(낮음/중간/", "높"], ["영향도(낮음/중간/높", "음"], ["영향도(낮음/중간/높음", ")</w>"], ["×", "</w>"], ["가능", "성"], ["가능성", "("], ["가능성(", "희"], ["가능성(희", "박"], ["가능성(희박", "/"], ["가능성(희박/", "가"], ["가능성(희박/가", "능/"], ["가능성(희박/가능/", "빈"], ["가능성(희박/가능/빈", "번"], ["가능성(희박/가능/빈번", ")</w>"], ["지연", ",</w>"], ["변경", ",</w>"], ["편차", ",</w>"], ["회", "피"], ["회피", "/"], ["회피/", "완화"], ["회피/완화", "/"], ["회피/완화/", "전"], ["회피/완화/전", "가"], ["회피/완화/전가", "/"], ["회피/완화/전가/", "수"], ["회피/완화/전가/수", "용</w>"], ["선", "택"], ["선택", "</w>"], ["동", "</w>"], ["커뮤니케이", "션"], ["커뮤니케이션", ":</w>"], ["I", "</w>"], ["8", "7%</w>"], ["10", "건</w>"], ["2", "8"], ["2026-08-1", "1</w>"], ["2026-06-2", "1</w>"], ["2026-05-2", "0</w>"], ["20", "%</w>"], ["실행", "안"], ["질", "문"], ["질문", "</w>"], ["문", "의"], ["문의", "는</w>"], ["2026-06-1", "4</w>"], ["7", "0%</w>"], ["4", "5%</w>"], ["9", "Mbps,</w>"], ["2026-07", "-09</w>"], ["9", "8%,</w>"], ["2026-06-1", "2</w>"], ["0", "ms,</w>"], ["3", "1%</w>"], ["보고", "서_T-1"], ["4", "W,</w>"], ["4", "Mbps,</w>"], ["_0", "1"], ["컴", "플"], ["컴플", "라"], ["컴플라", "이언"], ["컴플라이언", "스</w>"], ["카테고리", "별</w>"], ["수립", "하고</w>"], ["승인", "/"], ["승인/", "감사</w>"], ["루프", "를</w>"], ["인증", ",</w>"], ["거버넌", "스"], ["거버넌스", "의</w>"], ["세", "</w>"], ["축", "으로</w>"], ["자", "체</w>"], ["증빙", "은</w>"], ["서", "식"], ["서식", "으로</w>"], ["저장", "하고</w>"], ["평가", "를</w>"], ["선", "행한다.</w>"], ["매", "핑"], ["매핑", "표,</w>"], ["인", "벤"], ["인벤", "토"], ["인벤토", "리"], ["인벤토리", ",</w>"], ["여", "부</w>"], ["인증", "</w>"], ["19", "개월</w>"], ["-", "-</w>"], ["30", "개월</w>"], ["공", "동</w>"], ["개발", ",</w>"], ["지원", ",</w>"], ["활", "동"], ["활동", "을</w>"], ["창", "구</w>"], ["채", "널"], ["채널", "("], ["종", ")</w>"], ["사", "용</w>"], ["이", "행"], ["이행", ":</w>"], ["사항", "은</w>"], ["절차", "에</w>"], ["승인", "한다.</w>"], ["문", "화"], ["문화", "/"], ["문화/", "규제</w>"], ["차", "이"], ["차이", "를</w>"], ["험", "</w>"], ["계획", "을</w>"], ["수립", "한다.</w>"], ["주", "간</w>"], ["리뷰", "를</w>"], ["캘", "린"], ["캘린", "더"], ["캘린더", ",</w>"], ["정의", "서"], ["정의서", ",</w>"], ["약", "정</w>"], ["R", "A"], ["RA", "C"], ["RAC", "I</w>"], ["종", "료"], ["종료", "</w>"], ["정리", "</w>"], ["9", "1%</w>"], ["협력", "사</w>"], ["재", "선"], ["재선", "정</w>"], ["2026-08-1", "5</w>"], ["2", "ms,</w>"], ["2", "5"], ["시험계획", "서_T-1"], ["_0", "6"], ["4", "단계)</w>"], ["9", "0%</w>"], ["19", "프레임으로</w>"], ["설", "</w>"], ["2026-07-1", "7</w>"], ["스케줄러", "을(를)</w>"], ["2026-11", "-04</w>"], ["2026-08", "-08</w>"], ["2026-07-2", "4</w>"], ["18", "dB,</w>"], ["14", "프레임으로</w>"], ["2026-09-2", "8</w>"], ["2026-07", "-05</w>"], ["6", "로</w>"], ["9", "점</w>"], ["2026-06-0", "7</w>"], ["신뢰", "성</w>"], ["8", "로</w>"], ["2026-10", "-05</w>"], ["2026-10-2", "9</w>"], ["_0", "9"], ["위", "험</w>"], ["2026-05-1", "9</w>"], ["연구", "개발"], ["연구개발", "</w>"], ["2026-10-1", "8</w>"], ["2026-08", "-30</w>"], ["2026-10-1", "4</w>"], ["2026-09-1", "6</w>"], ["2026-09", "-06</w>"], ["로", "드"], ["로드", "맵"], ["로드맵", "</w>"], ["상", "담</w>"], ["2026-10", "-09</w>"], ["4", "3%</w>"], ["11", "프레임으로</w>"], ["2026-09-2", "7</w>"], ["2026-07-2", "5</w>"], ["6", "8%</w>"], ["2026-10-1", "9</w>"], ["보고", "서_T-0"], ["2026-05-2", "7</w>"], ["2026-11-1", "3</w>"], ["2026-08-1", "7</w>"], ["1", "로</w>"], ["0.2", "7로</w>"], ["9", "프레임으로</w>"], ["2026-11", "-02</w>"], ["2026-05-1", "2</w>"], ["2026-11", "-01</w>"], ["0", "Mbps,</w>"], ["0", "W,</w>"], ["2026-09-1", "2</w>"], ["이", "스는</w>"], ["1", "W,</w>"], ["6", "프레임으로</w>"], ["2026-08", "-04</w>"], ["_0", "0"], ["[극비][", "운영]</w>"], ["2026-08-2", "0</w>"], ["_0", "5"], ["4", "항목으로</w>"], ["2026-05-2", "3</w>"], ["5", "항목으로</w>"], ["2026-08-2", "7</w>"], ["2026-11-1", "5</w>"], ["3", "8%</w>"], ["계획_T", "-1"], ["2026-08", "-05</w>"], ["2026-08-2", "4</w>"], ["2", "3%</w>"], ["_0", "3"], ["인수", "인"], ["반복", "한다</w>"], ["기술검토", "서_T-1"], ["2026-06-2", "6</w>"], ["2026-06-1", "9</w>"], ["4", "C를</w>"], ["2026-07-2", "2</w>"], ["2026-07-2", "7</w>"], ["2026-06-1", "3</w>"], ["2026-05", "-07</w>"], ["5", "7%</w>"], ["2026-07-2", "9</w>"], ["2026-10", "-07</w>"], ["3", "3"], ["3", "C를</w>"], ["2026-10-2", "8</w>"], ["2026-07-2", "6</w>"], ["2026-08", "-31</w>"], ["15", "프레임으로</w>"], ["2026-06-2", "4</w>"], ["2026-10-2", "4</w>"], ["2026-05-2", "4</w>"], ["기법", "</w>"], ["2026-04", "-05</w>"], ["2026-07", "-01</w>"], ["43", "dB,</w>"], ["2026-08-1", "3</w>"], ["2026-10", "-06</w>"], ["3", "단계</w>"], ["27", "개월</w>"], ["20", "개월</w>"], ["체크리스트", "_1"], ["9", "2%</w>"], ["고려", "한</w>"], ["기준", "_2"], ["24", "프레임으로</w>"], ["2026-09-2", "2</w>"], ["2", "로</w>"], ["3", "2%</w>"], ["2026-08-1", "0</w>"], ["2026-09-2", "9</w>"], ["2026-09-1", "5</w>"], ["3", "0%</w>"], ["2026-09-2", "3</w>"], ["2026-06-1", "6</w>"], ["2", "W,</w>"], ["5", "W,</w>"], ["2026-11-1", "9</w>"], ["22", "개월</w>"], ["_0", "7"], ["17", "개월</w>"], ["선", "</w>"], ["8", "9%</w>"], ["정", "/"], ["2025-09", "-1"], ["바", "운"], ["2026-08-2", "1</w>"], ["35", "dB,</w>"], ["2026-10-1", "0</w>"], ["9", "7%,</w>"], ["2026-10", "-31</w>"], ["2026-11-1", "0</w>"], ["명세", "서_T-1"], ["3", "5%</w>"], ["13", "프레임으로</w>"], ["2026-09-1", "1</w>"], ["2026-06-1", "0</w>"], ["32", "dB,</w>"], ["0.3", "4로</w>"], ["4", "9%</w>"], ["2026-05", "-02</w>"], ["4", "7%</w>"], ["2026-10", "-01</w>"], ["4", "ms,</w>"], ["3", "Mbps,</w>"], ["2026-10-2", "2</w>"], ["2026-10-2", "3</w>"], ["3", "9%</w>"], ["2026-09-2", "6</w>"], ["5", "2%</w>"], ["4", "8%</w>"], ["2026-11", "-09</w>"], ["0.2", "8로</w>"], ["6", "9%</w>"], ["2026-07", "-30</w>"], ["2026-07", "-03</w>"], ["2026-10-1", "6</w>"], ["35", "개월</w>"], ["2026-09-1", "3</w>"], ["서", "</w>"], ["[극비][", "정책]</w>"], ["대외", "</w>"], ["지침", "_1"], ["2026-05", "-09</w>"], ["2026-08-1", "9</w>"], ["2026-07", "-04</w>"], ["2026-07-1", "4</w>"], ["5", "프레임으로</w>"], ["2026-04-2", "6</w>"], ["02", "</w>"], ["2026-07-2", "3</w>"], ["3", "1"], ["2026-05-2", "1</w>"], ["2026-04-2", "1</w>"], ["2026-11-1", "7</w>"], ["29", "개월</w>"], ["8", "5%</w>"], ["인수인", "계</w>"], ["2025-12", "-1"], ["2025-10", "-1"], ["2026-11-1", "4</w>"], ["0.2", "3로</w>"], ["5", "5%</w>"], ["2026-10", "-08</w>"], ["모델", "</w>"], ["21", "dB,</w>"], ["법", ":</w>"], ["2026-08", "-03</w>"], ["6", "5%</w>"], ["정의", "서_T-0"], ["6", "7%</w>"], ["2026-07-2", "0</w>"], ["2026-06-2", "7</w>"], ["2026-08", "-02</w>"], ["5", "9C를</w>"], ["0.", "17"], ["0.17", "로</w>"], ["2026-09", "-09</w>"], ["3", "7%</w>"], ["2026-11", "-08</w>"], ["22", "프레임으로</w>"], ["경", "</w>"], ["2026-06-0", "8</w>"], ["5", "1%</w>"], ["2026-04-1", "6</w>"], ["2026-06-0", "1</w>"], ["2026-07-1", "0</w>"], ["2026-06-2", "5</w>"], ["2026-11", "-03</w>"], ["2027-03", "-1"], ["2026-04-1", "7</w>"], ["---|", "-</w>"], ["23", "개월</w>"], ["커뮤니케이", "션</w>"], ["13", "개월</w>"], ["2026-10-2", "7</w>"], ["2026-06-", "30</w>"], ["36", "dB,</w>"], ["17", "프레임으로</w>"], ["2026-07-1", "9</w>"], ["2026-10-1", "7</w>"], ["0.2", "4로</w>"], ["2026-06-2", "9</w>"], ["2026-10-1", "5</w>"], ["24", "개월</w>"], ["2026-08-1", "4</w>"], ["설계요건", "서_T-1"], ["5", "3%</w>"], ["2026-08-2", "2</w>"], ["2026-12-1", "3</w>"], ["2026-07-1", "5</w>"], ["2026-04-1", "0</w>"], ["0.", "13"], ["0.13", "로</w>"], ["설계", "서"], ["_", "20"], ["2026-04-2", "5</w>"], ["2026-12-2", "4</w>"], ["28", "개월</w>"], ["샘", "플"], ["32", "개월</w>"], ["회의록_0", "1"], ["회의록", "_02"], ["회의록_0", "4"], ["CS", "</w>"], ["2025-10", "-2"], ["최", "신"], ["최신", "성</w>"], ["참", "고"], ["참고", ":</w>"], ["공지", "사항"], ["공지사항", "과</w>"], ["동", "기"], ["동기", "화</w>"], ["2025-12", "-2"], ["가동", "률,</w>"], ["의", "심</w>"], ["계", "정은</w>"], ["휴", "대"], ["휴대", "폰"], ["휴대폰", "</w>"], ["변경", "시</w>"], ["가능", "한"], ["가능한", "가"], ["가능한가", "요"], ["가능한가요", "?"], ["가능한가요?", "</w>"], ["피", "드"], ["피드", "백</w>"], ["고객", "지원</w>"], ["공지", "사항</w>"], ["지연", "은</w>"], ["카테고리", "로</w>"], ["중", "복"], ["중복", "</w>"], ["유형", "은</w>"], ["주", "된"], ["주된", "</w>"], ["영향", "</w>"], ["반", "품</w>"], ["환", "불"], ["환불", "</w>"], ["재", "설정</w>"], ["문", "구"], ["20", "자</w>"], ["메", "모"], ["요", "금"], ["요금", "제</w>"], ["약", "관</w>"], ["일", "일</w>"], ["공", "지</w>"], ["6", "2%</w>"], ["4", "2%</w>"], ["9", "9%,</w>"], ["2026-04-1", "9</w>"], ["2026-10-1", "2</w>"], ["21", "프레임으로</w>"], ["8", "0점</w>"], ["0.3", "5로</w>"], ["2026-09", "-08</w>"], ["설계요건", "서_T-0"], ["2026-11-2", "0</w>"], ["2026-05", "-03</w>"], ["2026-08-1", "2</w>"], ["2026-05", "-05</w>"], ["0.2", "6로</w>"], ["6", "4%</w>"], ["2026-11-2", "1</w>"], ["2026-05-2", "6</w>"], ["8", "5C를</w>"], ["2026-09", "-03</w>"], ["시험계획", "서_T-0"], ["2026-09", "-02</w>"], ["건", ":</w>"], ["2026-10", "-03</w>"], ["2026-07-1", "8</w>"], ["2026-09-2", "0</w>"], ["2026-10-2", "1</w>"], ["2026-06-1", "8</w>"], ["2026-09-1", "0</w>"], ["2026-05", "-31</w>"], ["2026-05-1", "3</w>"], ["_2", "6"], ["보고", "_1"], ["16", "개월</w>"], ["34", "개월</w>"], ["---|", "--</w>"], ["2026-05", "-01</w>"], ["0.2", "5로</w>"], ["2026-09", "-30</w>"], ["2026-06-2", "3</w>"], ["2026-10", "-04</w>"], ["7", "프레임으로</w>"], ["2026-12", "-08</w>"], ["2026-07-1", "2</w>"], ["10", "프레임으로</w>"], ["6", "1%</w>"], ["2026-07-1", "1</w>"], ["3", "9"], ["39", "dB,</w>"], ["5", "8%</w>"], ["2026-06-0", "5</w>"], ["2026-10-2", "6</w>"], ["2026-03-1", "7</w>"], ["5", "6%</w>"], ["2026-09", "-04</w>"], ["20", "프레임으로</w>"], ["2026-10-2", "5</w>"], ["2026-10-2", "0</w>"], ["2026-04", "-09</w>"], ["_2", "1"], ["공", "급"], ["공급", "망"], ["공급망", "</w>"], ["14", "개월</w>"], ["_2", "2"], ["_2", "5"], ["_1", "6"], ["18", "개월</w>"], ["회", "</w>"], ["중", "요</w>"], ["비", "공개</w>"], ["협", "상</w>"], ["2026-05-1", "6</w>"], ["발", "</w>"], ["회의록_0", "3"], ["까", "지</w>"], ["20", "개</w>"], ["P", "1</w>"], ["2", "시간</w>"], ["측", "정</w>"], ["방", "법"], ["방법", "</w>"], ["효", "율"], ["효율", "과</w>"], ["3", "문"], ["3문", "장</w>"], ["2026-09-2", "1</w>"], ["2026-05-1", "0</w>"], ["2026-11", "-06</w>"], ["2026-08", "-06</w>"], ["2026-06-2", "2</w>"], ["2026-04-2", "4</w>"], ["2026-08-2", "5</w>"], ["2026-05-2", "5</w>"], ["2026-09", "-07</w>"], ["2026-04-1", "1</w>"], ["33", "dB,</w>"], ["2027-03", "-2"], ["23", "dB,</w>"], ["2026-07", "-02</w>"], ["0.3", "1로</w>"], ["2026-12", "-06</w>"], ["2026-11", "-05</w>"], ["2026-05", "-06</w>"], ["4", "5"], ["45", "dB,</w>"], ["2026-12", "-04</w>"], ["2026-04", "-06</w>"], ["3", "8"], ["2026-06-2", "0</w>"], ["검토", "서"], ["2026-08-1", "6</w>"], ["--", "|---</w>"], ["_2", "4"], ["|", "---|---</w>"], ["안정화", "</w>"], ["2026-05-2", "9</w>"], ["2026-03-1", "0</w>"], ["5", "4%</w>"], ["2026-04", "-01</w>"], ["3", "6%</w>"], ["2026-04", "-03</w>"], ["0.3", "2로</w>"], ["예", "</w>"], ["4", "0"], ["40", "dB,</w>"], ["2026-09-2", "4</w>"], ["2026-12-1", "1</w>"], ["0.", "18"], ["0.18", "로</w>"], ["2026-12-1", "0</w>"], ["2026-08-2", "6</w>"], ["29", "dB,</w>"], ["2026-06-0", "9</w>"], ["2026-12", "-01</w>"], ["0.3", "0"], ["0.30", "로</w>"], ["5", "2점</w>"], ["2026-09", "-01</w>"], ["2026-08", "-07</w>"], ["2027-01-2", "8</w>"], ["2026-08-2", "9</w>"], ["4", "4%</w>"], ["4", "1%</w>"], ["34", "dB,</w>"], ["2026-12", "-07</w>"], ["2026-12-1", "5</w>"], ["개요_T", "-1"], ["방", "안"], ["25", "개월</w>"], ["조", "사</w>"], ["재", "</w>"], ["31", "개월</w>"], ["회의록_0", "0"], ["반복", "</w>"], ["2026-03-2", "1</w>"], ["요청", "</w>"], ["2025-11", "-2"], ["시", "간:</w>"], ["복", "구"], ["복구", "까지</w>"], ["가동", "률</w>"], ["2025-11", "-1"], ["속", "도</w>"], ["향", "상</w>"], ["어", "휘"], ["어휘", "</w>"], ["홍", "조</w>"], ["재", "분류</w>"], ["로그", "인</w>"], ["오류", "</w>"], ["계", "정/"], ["계정/", "결"], ["계정/결", "제"], ["계정/결제", "/"], ["계정/결제/", "기술"], ["계정/결제/기술", "/"], ["계정/결제/기술/", "배송"], ["계정/결제/기술/배송", "/"], ["계정/결제/기술/배송/", "기"], ["계정/결제/기술/배송/기", "타</w>"], ["배", "치</w>"], ["I", "V"], ["IV", "R"], ["IVR", "</w>"], ["0.3", "7로</w>"], ["0.", "19"], ["0.19", "로</w>"], ["2026-07", "-08</w>"], ["8", "3점</w>"], ["2026-07", "-07</w>"], ["16", "프레임으로</w>"], ["3", "4%</w>"], ["3", "7"], ["37", "dB,</w>"], ["6", "2점</w>"], ["입", "</w>"], ["2027-02-1", "2</w>"], ["2026-03-1", "2</w>"], ["2026-11-1", "6</w>"], ["26", "dB,</w>"], ["2026-06-0", "6</w>"], ["2026-03-2", "0</w>"], ["터페", "이스는</w>"], ["개요_T", "-0"], ["절차", "서_T-1"], ["4", "6점</w>"], ["6", "0%</w>"], ["2026-11-2", "7</w>"], ["생", "산</w>"], ["2026-12", "-09</w>"], ["2026-05", "-30</w>"], ["_2", "3"], ["절차", "서_1"], ["2026-06-1", "5</w>"], ["절차", "서"], ["2026-05-2", "8</w>"], ["20", "dB,</w>"], ["1", "10"], ["2026-05-1", "8</w>"], ["2026-11", "-07</w>"], ["2026-12", "-05</w>"], ["명세", "서_T-0"], ["2026-05-1", "7</w>"], ["2026-10-1", "1</w>"], ["6", "W,</w>"], ["2026-06-0", "3</w>"], ["1", "2</w>"], ["7", "4</w>"], ["0.3", "3로</w>"], ["2026-05-2", "2</w>"], ["0.", "16"], ["0.16", "로</w>"], ["2026-07-1", "3</w>"], ["저", "</w>"], ["2026-04-1", "5</w>"], ["23", "프레임으로</w>"], ["2026-11-1", "2</w>"], ["8", "8점</w>"], ["2027-01-2", "6</w>"], ["행", "</w>"], ["2026-11-2", "8</w>"], ["2026-05", "-08</w>"], ["운", "</w>"], ["_2", "7"], ["---", "|</w>"], ["12", "개월</w>"], ["복", "한다.</w>"], ["연", "</w>"], ["채널(", "2"], ["채널(2", "종)</w>"], ["_1", "8"], ["8", "프레임으로</w>"], ["요약", "_1"], ["_1", "2"], ["2026-01", "-1"], ["1", "회</w>"], ["통", "계</w>"], ["9", "9"], ["99", "."], ["가동", "률"], ["가동률", ":</w>"], ["제", "공"], ["제공", "</w>"], ["발", "급</w>"], ["키", "워"], ["키워", "드</w>"], ["일관", "성</w>"], ["표준", "을</w>"], ["유지", "하"], ["유지하", "여"], ["유지하여", "</w>"], ["평", "준"], ["평준", "을</w>"], ["축", "소</w>"], ["대", "기</w>"], ["7", "1점</w>"], ["4", "4"], ["2026-06-0", "4</w>"], ["2026-03", "-07</w>"], ["2026-05-1", "4</w>"], ["2", "Mbps,</w>"], ["6", "3C를</w>"], ["2026-07", "-06</w>"], ["2026-12", "-03</w>"], ["2026-04", "-07</w>"], ["2026-04", "-08</w>"], ["2026-05-1", "1</w>"], ["6", "6점</w>"], ["2026-07-2", "8</w>"], ["2026-12", "-31</w>"], ["4", "0%</w>"], ["2027-01-1", "7</w>"], ["4", "4점</w>"], ["요약", "서_T-0"], ["2026-09-1", "4</w>"], ["2026-12-1", "2</w>"], ["5", "2</w>"], ["2026-04-2", "7</w>"], ["38", "dB,</w>"], ["2026-07-2", "1</w>"], ["_2", "8"], ["---|", "---|--</w>"], ["3", "2</w>"], ["기술검토", "서_T-0"], ["5", "7점</w>"], ["2026-12-1", "7</w>"], ["7", "3</w>"], ["0.", "14"], ["0.14", "로</w>"], ["6", "0점</w>"], ["28", "dB,</w>"], ["2026-08", "-01</w>"], ["7", "4점</w>"], ["책", "</w>"], ["1", "1</w>"], ["2026-04", "-04</w>"], ["2026-03", "-30</w>"], ["2026-12-2", "2</w>"], ["2026-03", "-06</w>"], ["2026-04-2", "2</w>"], ["하", ",</w>"], ["2026-04-1", "3</w>"], ["2026-03-2", "5</w>"], ["2026-03-1", "4</w>"], ["2026-07", "-31</w>"], ["2026-10", "-30</w>"], ["2027-01-2", "3</w>"], ["2026-04", "-30</w>"], ["요약", "서_T-1"], ["4", "6C를</w>"], ["검토", "서_1"], ["만료(", "23"], ["만료(23", "일)</w>"], ["5", "0</w>"], ["2026-09", "-05</w>"], ["충", "</w>"], ["2026-09-1", "7</w>"], ["2026-04-1", "2</w>"], ["1", "0</w>"], ["_1", "0"], ["집", "행</w>"], ["2025-09", "-2"], ["99.", "9%</w>"], ["본", "인</w>"], ["동", "의</w>"], ["없", "는</w>"], ["녹", "취"], ["녹취", "</w>"], ["금", "지</w>"], ["인", "바운"], ["인바운", "드"], ["인바운드", "/"], ["인바운드/", "아"], ["인바운드/아", "웃"], ["인바운드/아웃", "바운"], ["인바운드/아웃바운", "드</w>"], ["2026-12-2", "5</w>"], ["인터페", "이</w>"], ["44", "dB,</w>"], ["8", "5점</w>"], ["2026-06-1", "1</w>"], ["12", "8Mbps,</w>"], ["36", "C를</w>"], ["3", "4</w>"], ["6", "1C를</w>"], ["2027-01", "-03</w>"], ["2026-03", "-03</w>"], ["18", "프레임으로</w>"], ["계획_T", "-02"], ["4", "9점</w>"], ["8", "8</w>"], ["8", "7C를</w>"], ["0.2", "1로</w>"], ["5", "4</w>"], ["2026-03-2", "9</w>"], ["7", "5점</w>"], ["2027-01", "-09</w>"], ["8", "6점</w>"], ["3", "8</w>"], ["1", "7</w>"], ["26", "W,</w>"], ["2026-03", "-05</w>"], ["2026-05-1", "5</w>"], ["7", "7</w>"], ["8", "0C를</w>"], ["8", "1점</w>"], ["0.2", "9"], ["0.29", "로</w>"], ["7", "1</w>"], ["0.3", "6로</w>"], ["9", "1</w>"], ["4", "7점</w>"], ["2026-03-1", "3</w>"], ["3", "7</w>"], ["2026-12-2", "3</w>"], ["6", "1</w>"], ["검", "</w>"], ["3", "3</w>"], ["15", "개월</w>"], ["1", "9</w>"], ["4", "0</w>"], ["4", "1"], ["41", "dB,</w>"], ["5", "5점</w>"], ["0.", "20"], ["0.20", "로</w>"], ["6", "4</w>"], ["7", "2</w>"], ["4", "2C를</w>"], ["2026-11-2", "6</w>"], ["2027-01", "-31</w>"], ["6", "8</w>"], ["4", "5점</w>"], ["9", "4</w>"], ["8", "2점</w>"], ["2026-12-2", "1</w>"], ["5", "9%</w>"], ["9", "2</w>"], ["2026-03-2", "4</w>"], ["4", "9C를</w>"], ["2027-01", "-01</w>"], ["4", "2"], ["6", "5C를</w>"], ["5", "3</w>"], ["5", "7</w>"], ["12", "프레임으로</w>"], ["6", "6%</w>"], ["30", "dB,</w>"], ["2026-09-1", "8</w>"], ["5", "7C를</w>"], ["13", "1ms,</w>"], ["4", "8</w>"], ["2026-11-2", "2</w>"], ["5", "8W,</w>"], ["4", "1</w>"], ["7", "9</w>"], ["6", "5점</w>"], ["6", "5W,</w>"], ["2026-04-2", "9</w>"], ["2026-04-1", "4</w>"], ["4", "8C를</w>"], ["7", "7C를</w>"], ["9", "5</w>"], ["7", "5C를</w>"], ["9", "7</w>"], ["9", "9</w>"], ["13", "8Mbps,</w>"], ["2026-04-2", "3</w>"], ["4", "5</w>"], ["설계", "서_1"], ["2026-03-2", "7</w>"], ["7", "5</w>"], ["3", "항목으로</w>"], ["처리", "한다</w>"], ["36", "개월</w>"], ["5", "9</w>"], ["_", "샘플"], ["_샘플", "</w>"], ["1", "3</w>"], ["3", "1</w>"], ["채널(", "3"], ["채널(3", "종)</w>"], ["체", "계</w>"], ["2026-04", "-02</w>"], ["0", "8</w>"], ["규명", "한</w>"], ["입", "찰"], ["11", "건</w>"], ["21", "개월</w>"], ["3", "5</w>"], ["8", "1</w>"], ["5", "5</w>"], ["3", "3%</w>"], ["1", "5</w>"], ["7", "6</w>"], ["1", "4</w>"], ["5", "1</w>"], ["자료", "_1"], ["문구", "_1"], ["0", "4</w>"], ["6", "3</w>"], ["19", "dB,</w>"], ["24", "dB,</w>"], ["6", "7</w>"], ["15", "W,</w>"], ["4", "8점</w>"], ["2027-01-1", "6</w>"], ["1", "6</w>"], ["12", "W,</w>"], ["3", "6</w>"], ["2026-04-2", "0</w>"], ["2027-03", "-02</w>"], ["5", "1C를</w>"], ["6", "8점</w>"], ["8", "0</w>"], ["2026-03", "-09</w>"], ["2027-01-2", "0</w>"], ["27", "dB,</w>"], ["7", "0W,</w>"], ["2027-02", "-06</w>"], ["12", "5Mbps,</w>"], ["2026-03", "-08</w>"], ["2026-03-1", "6</w>"], ["2027-01-1", "3</w>"], ["4", "4W,</w>"], ["5", "6점</w>"], ["2027-01", "-07</w>"], ["류", "한다.</w>"], ["인", "터</w>"], ["페", "이스는</w>"], ["프로세스", "_1"], ["4", "시간,</w>"], ["9", "3</w>"], ["격", "</w>"], ["-", "|---|---</w>"], ["7", "0</w>"], ["2027-01", "-04</w>"], ["2", "8</w>"], ["만료(", "22"], ["만료(22", "일)</w>"], ["2026-11-2", "5</w>"], ["지", "성과</w>"], ["0", "9</w>"], ["2026-12-1", "6</w>"], ["순", "</w>"], ["1", "8</w>"], ["7", "2C를</w>"], ["서_T", "-02"], ["35", "C를</w>"], ["2026-06-2", "8</w>"], ["8", "4</w>"], ["6", "7C를</w>"], ["0.2", "2로</w>"], ["110", "W,</w>"], ["4", "1C를</w>"], ["2027-02", "-03</w>"], ["5", "4C를</w>"], ["4", "6</w>"], ["4", "4</w>"], ["5", "4점</w>"], ["6", "2</w>"], ["22", "dB,</w>"], ["2027-02-1", "0</w>"], ["5", "9W,</w>"], ["2026-06-", "02</w>"], ["42", "dB,</w>"], ["3", "9</w>"], ["15", "6ms,</w>"], ["4", "7C를</w>"], ["90", "C를</w>"], ["2026-04-2", "8</w>"], ["0", "7</w>"], ["5", "1점</w>"], ["4", "7</w>"], ["8", "8C를</w>"], ["6", "1점</w>"], ["11", "1W,</w>"], ["2026-03", "-31</w>"], ["2026-03", "-02</w>"], ["2027-02-1", "8</w>"], ["18", "Mbps,</w>"], ["2026-11-1", "1</w>"], ["6", "3%</w>"], ["8", "7</w>"], ["4", "3</w>"], ["9", "6</w>"], ["9", "8</w>"], ["0", "1</w>"], ["3", "9W,</w>"], ["2027-01-1", "4</w>"], ["2026-03", "-04</w>"], ["1", "14"], ["2026-11", "-30</w>"], ["2026-12", "-02</w>"], ["4", "2</w>"], ["25", "dB,</w>"], ["7", "8</w>"], ["0", "0</w>"], ["절차", "서_T-0"], ["4", "9</w>"], ["만료(", "27"], ["만료(27", "일)</w>"], ["기록", "_1"], ["만료(", "21"], ["만료(21", "일)</w>"], ["지침", "_04"], ["진", "</w>"], ["조달/", "입찰"], ["조달/입찰", "/"], ["조달/입찰/", "계약</w>"], ["항목", "을</w>"], ["적합", "성"], ["적합성", ",</w>"], ["증빙", ",</w>"], ["대응", "을</w>"], ["반", "영"], ["반영", "한다.</w>"], ["항목", ":</w>"], ["안정성", ",</w>"], ["수준", ",</w>"], ["프로토콜", "("], ["프로토콜(", "가중치</w>"], ["%", ")</w>"], ["게이트", ":</w>"], ["서", "류"], ["서류", "</w>"], ["승인", "(총</w>"], ["축", "약"], ["축약", "본"], ["축약본", "으"], ["축약본으", "로"], ["축약본으로", "만</w>"], ["공유", "한다.</w>"], ["일", "정/"], ["일정/", "품질"], ["일정/품질", "/보안</w>"], ["조", "건"], ["조건", "의</w>"], ["균형", "을</w>"], ["조달", "</w>"], ["평가", "위"], ["평가위", "원</w>"], ["이", "해"], ["이해", "상"], ["이해상", "충</w>"], ["제", "안"], ["제안", "서</w>"], ["준", "수</w>"], ["기", "능</w>"], ["6", "0</w>"], ["9", "0</w>"], ["2026-04-1", "8</w>"], ["5", "6C를</w>"], ["6", "4점</w>"], ["2026-03-1", "8</w>"], ["5", "6</w>"], ["7", "7점</w>"], ["5", "8</w>"], ["7", "3점</w>"], ["유지", "성</w>"], ["투", "자</w>"], ["2026-02-2", "3</w>"], ["2025-10", "-05</w>"], ["2026-02-2", "8</w>"], ["2026-02-1", "6</w>"], ["해결", "률</w>"], ["3", "1ms,</w>"], ["8", "1C를</w>"], ["2027-02-1", "7</w>"], ["16", "3ms,</w>"], ["연", "으로</w>"], ["10", "9Mbps,</w>"], ["7", "9C를</w>"], ["계", "별</w>"], ["16", "1ms,</w>"], ["35", "W,</w>"], ["0.", "12"], ["0.12", "로</w>"], ["8", "4ms,</w>"], ["14", "3Mbps,</w>"], ["3", "3W,</w>"], ["정의", "서_T-1"], ["10", "8W,</w>"], ["12", "0Mbps,</w>"], ["17", "3ms,</w>"], ["7", "7W,</w>"], ["0.3", "8로</w>"], ["9", "8ms,</w>"], ["7", "8C를</w>"], ["차단", "</w>"], ["17", "1Mbps,</w>"], ["10", "7ms,</w>"], ["7", "6C를</w>"], ["8", "5</w>"], ["2027-02-2", "8</w>"], ["1", "일</w>"], ["처리", "한</w>"], ["업데", "이</w>"], ["0", "5</w>"], ["계획", "_09"], ["2027-01-2", "1</w>"], ["채널(", "4"], ["채널(4", "종)</w>"], ["2026-12-1", "8</w>"], ["계획_1", "2"], ["정책", "_1"], ["2027-03-2", "2</w>"], ["2027-01-1", "9</w>"], ["2027-02", "-02</w>"], ["2026-11-2", "3</w>"], ["36", "Mbps,</w>"], ["11", "W,</w>"], ["모", "</w>"], ["2027-02-1", "3</w>"], ["2026-03-1", "9</w>"], ["5", "8점</w>"], ["3", "7W,</w>"], ["2027-01", "-05</w>"], ["7", "4C를</w>"], ["6", "8ms,</w>"], ["4", "8Mbps,</w>"], ["9", "7W,</w>"], ["14", "5ms,</w>"], ["10", "4W,</w>"], ["2027-02-2", "1</w>"], ["3", "7ms,</w>"], ["2027-01-2", "7</w>"], ["누", "</w>"], ["8", "2ms,</w>"], ["5", "0C를</w>"], ["2027-02", "-01</w>"], ["로", "는</w>"], ["2026-11-2", "4</w>"], ["4", "5C를</w>"], ["16", "9ms,</w>"], ["10", "0ms,</w>"], ["4", "2W,</w>"], ["2027-02-1", "5</w>"], ["6", "8C를</w>"], ["2027-02-2", "6</w>"], ["31", "dB,</w>"], ["14", "6ms,</w>"], ["21", "ms,</w>"], ["2027-01-2", "9</w>"], ["14", "0ms,</w>"], ["5", "3점</w>"], ["8", "3</w>"], ["2026-12", "-30</w>"], ["안", "</w>"], ["11", "6ms,</w>"], ["3", "8C를</w>"], ["6", "3점</w>"], ["8", "2</w>"], ["14", "6Mbps,</w>"], ["6", "3W,</w>"], ["10", "3ms,</w>"], ["6", "7W,</w>"], ["2026-03-1", "5</w>"], ["2026-11-1", "8</w>"], ["15", "7ms,</w>"], ["22", "Mbps,</w>"], ["0", "3</w>"], ["뢰", "도</w>"], ["6", "9C를</w>"], ["2026-03-2", "6</w>"], ["2027-01", "-06</w>"], ["2027-01-1", "8</w>"], ["14", "8Mbps,</w>"], ["그", "</w>"], ["핵", "</w>"], ["크", "는</w>"], ["8", "6</w>"], ["14", "9ms,</w>"], ["6", "9점</w>"], ["2026-11-2", "9</w>"], ["2027-02-2", "2</w>"], ["2027-01-2", "4</w>"], ["7", "9점</w>"], ["2026-12-2", "7</w>"], ["5", "9점</w>"], ["7", "시간,</w>"], ["계획", "_04"], ["2027-02-1", "1</w>"], ["2", "단계</w>"], ["2", "7</w>"], ["만료(", "8"], ["만료(8", "일)</w>"], ["만료(", "29"], ["만료(29", "일)</w>"], ["33", "개월</w>"], ["0", "건</w>"], ["지침", "_08"], ["순", "서</w>"], ["가이드", "_02"], ["조직", "</w>"], ["자료", "_03"], ["2026-12-2", "9</w>"], ["2027-03", "-01</w>"], ["2027-0", "4"], ["2026-12-2", "0</w>"], ["2027-02-2", "4</w>"], ["2026-12-1", "9</w>"], ["2027-02", "-04</w>"], ["7", "0C를</w>"], ["7", "1ms,</w>"], ["43", "W,</w>"], ["3", "9C를</w>"], ["리스", "</w>"], ["5", "0W,</w>"], ["5", "4W,</w>"], ["5", "1ms,</w>"], ["2027-01-2", "2</w>"], ["6", "0C를</w>"], ["5", "2C를</w>"], ["2027-03-1", "0</w>"], ["29", "Mbps,</w>"], ["2026-12-1", "4</w>"], ["2026-03-2", "8</w>"], ["2026-05", "-04</w>"], ["2026-03-1", "1</w>"], ["7", "0ms,</w>"], ["2027-01-2", "5</w>"], ["규명", "한다</w>"], ["-", "|---</w>"], ["--", "|---|---</w>"], ["현", "금"], ["현금", "</w>"], ["기준", "_02"], ["2026-02-1", "3</w>"], ["2025-11-2", "8</w>"], ["2025-09", "-01</w>"], ["2026-01-2", "1</w>"], ["2025-09-1", "1</w>"], ["2025-10-2", "4</w>"], ["2025-10-1", "4</w>"], ["2026-01-2", "9</w>"], ["2026-01-2", "2</w>"], ["2025-12-2", "7</w>"], ["2025-09-1", "2</w>"], ["2025-12", "-08</w>"], ["2026-02-2", "5</w>"], ["2025-12-1", "3</w>"], ["2025-12", "-04</w>"], ["콜", "</w>"], ["분배", "</w>"], ["12", "6Mbps,</w>"], ["24", "W,</w>"], ["0", "6</w>"], ["6", "4C를</w>"], ["9", "8W,</w>"], ["7", "2점</w>"], ["8", "8ms,</w>"], ["19", "2Mbps,</w>"], ["91", "C를</w>"], ["20", "7Mbps,</w>"], ["7", "0점</w>"], ["2026-03-2", "2</w>"], ["43", "Mbps,</w>"], ["4", "8W,</w>"], ["16", "4ms,</w>"], ["27", "W,</w>"], ["6", "5</w>"], ["8", "6Mbps,</w>"], ["8", "9C를</w>"], ["경계에서", "</w>"], ["에서", "의</w>"], ["7", "1W,</w>"], ["20", "5Mbps,</w>"], ["10", "4Mbps,</w>"], ["10", "9W,</w>"], ["8", "4C를</w>"], ["_00", "5</w>"], ["2027-03", "-06</w>"], ["계획", "_26"], ["만료(", "20"], ["만료(20", "일)</w>"], ["만료(", "7"], ["만료(7", "일)</w>"], ["가이드", "_23"], ["보고", "서</w>"], ["지침", "_05"], ["2027-02-2", "7</w>"], ["3", "9Mbps,</w>"], ["2027-03", "-30</w>"], ["27", "Mbps,</w>"], ["10", "W,</w>"], ["하", "</w>"], ["듈", "</w>"], ["기술검토서_T-1", "2"], ["7", "2ms,</w>"], ["7", "8점</w>"], ["14", "7ms,</w>"], ["4", "7Mbps,</w>"], ["18", "W,</w>"], ["절", "</w>"], ["2027-02", "-09</w>"], ["2026-12-2", "8</w>"], ["90", "ms,</w>"], ["5", "4Mbps,</w>"], ["7", "4W,</w>"], ["이트", "와</w>"], ["7", "3C를</w>"], ["7", "7Mbps,</w>"], ["13", "0Mbps,</w>"], ["7", "6W,</w>"], ["21", "W,</w>"], ["12", "2Mbps,</w>"], ["91", "W,</w>"], ["5", "8C를</w>"], ["14", "7Mbps,</w>"], ["11", "1Mbps,</w>"], ["22", "W,</w>"], ["게", "이</w>"], ["트", "와</w>"], ["2", "0</w>"], ["낮추", "</w>"], ["4", "0Mbps,</w>"], ["7", "3W,</w>"], ["4", "2ms,</w>"], ["4", "4Mbps,</w>"], ["8", "7점</w>"], ["6", "6</w>"], ["8", "9</w>"], ["20", "W,</w>"], ["2026-03-2", "3</w>"], ["20", "ms,</w>"], ["10", "0Mbps,</w>"], ["8", "3C를</w>"], ["8", "3W,</w>"], ["2027-03", "-04</w>"], ["19", "8Mbps,</w>"], ["11", "8W,</w>"], ["안", "정</w>"], ["36", "ms,</w>"], ["110", "Mbps,</w>"], ["6", "7점</w>"], ["10", "0W,</w>"], ["정의", "서_T-02"], ["4", "9ms,</w>"], ["6", "5Mbps,</w>"], ["43", "ms,</w>"], ["20", "1Mbps,</w>"], ["15", "5Mbps,</w>"], ["단", "한다.</w>"], ["29", "ms,</w>"], ["3", "8W,</w>"], ["7", "1Mbps,</w>"], ["7", "8W,</w>"], ["6", "1Mbps,</w>"], ["계획_T", "-09"], ["2027-03-1", "6</w>"], ["8", "5ms,</w>"], ["16", "Mbps,</w>"], ["2027-02-1", "9</w>"], ["3", "1W,</w>"], ["17", "1ms,</w>"], ["9", "3Mbps,</w>"], ["성", "한다.</w>"], ["스", "크는</w>"], ["5", "2ms,</w>"], ["18", "1Mbps,</w>"], ["5", "3W,</w>"], ["4", "0C를</w>"], ["2027-01-1", "1</w>"], ["설계서", "_06"], ["_08", "5</w>"], ["6", "2C를</w>"], ["2027-02", "-07</w>"], ["누", "락"], ["누락", "</w>"], ["2", "6</w>"], ["5", "7W,</w>"], ["16", "8ms,</w>"], ["13", "1Mbps,</w>"], ["23", "Mbps,</w>"], ["11", "5ms,</w>"], ["15", "1Mbps,</w>"], ["요약", "_01"], ["요약", "_04"], ["_06", "0</w>"], ["8", "시간,</w>"], ["5", "시간,</w>"], ["11", "시간,</w>"], ["프로세스", "_21"], ["_00", "7</w>"], ["방안", "_02"], ["합", "성</w>"], ["_02", "0</w>"], ["만료(", "15"], ["만료(15", "일)</w>"], ["_03", "6</w>"], ["---|", "---|-</w>"], ["보고", "_07"], ["만료(", "17"], ["만료(17", "일)</w>"], ["만료(", "13"], ["만료(13", "일)</w>"], ["만료(", "25"], ["만료(25", "일)</w>"], ["보고", "_25"], ["기록", "_08"], ["기록", "_16"], ["기록", "_22"], ["데", "이트</w>"], ["2027-01", "-02</w>"], ["체크리스트", "_20"], ["_01", "0</w>"], ["지침", "_06"], ["지침", "_21"], ["가이드_02", "2</w>"], ["가이드", "_27"], ["_00", "6</w>"], ["절차서", "_02"], ["경", "영"], ["경영", "진</w>"], ["교", "체</w>"], ["개", "편"], ["개편", "</w>"], ["이", "관"], ["인수인", "계"], ["인", "력</w>"], ["위", "원"], ["위원", "회</w>"], ["기준", "표:</w>"], ["지침", "_00"], ["기준_1", "08</w>"], ["전", "략"], ["2027-02-1", "4</w>"], ["만료(", "19"], ["만료(19", "일)</w>"], ["계획", "_07"], ["실행안", "_01"], ["_05", "8</w>"], ["실행안", "_08"], ["_18", "9</w>"], ["실행안", "_28"], ["_0", "02</w>"], ["정책", "_09"], ["_16", "5</w>"], ["2027-03", "-07</w>"], ["석", "</w>"], ["반복", "한</w>"], ["H", "P"], ["HP", "M"], ["가이드", "라인</w>"], ["19", "Mbps,</w>"], ["9", "5Mbps,</w>"], ["2", "5ms,</w>"], ["11", "5W,</w>"], ["17", "5Mbps,</w>"], ["6", "6C를</w>"], ["9", "2W,</w>"], ["7", "6ms,</w>"], ["2", "4</w>"], ["9", "5ms,</w>"], ["8", "2W,</w>"], ["확", "</w>"], ["10", "ms,</w>"], ["114", "W,</w>"], ["보고서_T-1", "2"], ["인터페", "</w>"], ["16", "7ms,</w>"], ["18", "3Mbps,</w>"], ["5", "1W,</w>"], ["5", "2W,</w>"], ["경계", "에</w>"], ["서", "의</w>"], ["선", ",</w>"], ["13", "9ms,</w>"], ["4", "1Mbps,</w>"], ["2027-03", "-05</w>"], ["8", "2C를</w>"], ["2027-01-1", "2</w>"], ["2027-02", "-08</w>"], ["7", "9W,</w>"], ["5", "7ms,</w>"], ["19", "5Mbps,</w>"], ["6", "4W,</w>"], ["12", "4Mbps,</w>"], ["6", "9</w>"], ["2027-01", "-08</w>"], ["4", "6%</w>"], ["7", "2W,</w>"], ["5", "3C를</w>"], ["6", "6Mbps,</w>"], ["10", "3W,</w>"], ["6", "9ms,</w>"], ["17", "2ms,</w>"], ["0.", "15"], ["0.15", "로</w>"], ["6", "0W,</w>"], ["9", "2C를</w>"], ["13", "W,</w>"], ["14", "1ms,</w>"], ["6", "9Mbps,</w>"], ["12", "Mbps,</w>"], ["2", "18Mbps,</w>"], ["적용", "한다</w>"], ["_07", "8</w>"], ["설계서", "_22"], ["2026-03", "-01</w>"], ["_04", "3</w>"], ["검토서", "_22"], ["요약", "_24"], ["6", "시간,</w>"], ["_04", "2</w>"], ["_06", "9</w>"], ["10", "시간,</w>"], ["_10", "6</w>"], ["프로세스", "_26"], ["방안", "_21"], ["계획", "_01"], ["계획", "_03"], ["만료(", "11"], ["만료(11", "일)</w>"], ["만료(", "9"], ["만료(9", "일)</w>"], ["기록", "_09"], ["_02", "9</w>"], ["_09", "8</w>"], ["려", "한</w>"], ["가이드", "_03"], ["가이드_1", "18</w>"], ["기준_1", "77</w>"], ["완", "충</w>"], ["사", "후</w>"], ["_02", "6</w>"], ["_0", "30</w>"], ["_06", "6</w>"], ["_16", "9</w>"], ["_12", "3</w>"], ["실행안", "_25"], ["_01", "8</w>"], ["정책", "_05"], ["정책", "_12"], ["정책", "_24"], ["정책", "_25"], ["2026-02-2", "4</w>"], ["2026-01-2", "4</w>"], ["2026-02-2", "6</w>"], ["2025-09-2", "7</w>"], ["2026-01-2", "3</w>"], ["2025-12-1", "4</w>"], ["2026-02-1", "0</w>"], ["2025-12", "-02</w>"], ["2025-12-2", "6</w>"], ["2025-11", "-09</w>"], ["가이드", "_06"], ["가이드", "_08"], ["2026-01", "-01</w>"], ["2025-10-2", "1</w>"], ["2026-01-2", "5</w>"], ["2025-09", "-06</w>"], ["2025-09-1", "3</w>"], ["2025-10-2", "8</w>"], ["2026-02-1", "7</w>"], ["2025-12-1", "9</w>"], ["2026-01-2", "6</w>"], ["2026-02", "-02</w>"], ["2025-09-1", "8</w>"], ["2025-11", "-04</w>"], ["2025-11-2", "1</w>"], ["2025-11", "-07</w>"], ["2026-02-1", "8</w>"], ["2026-01-2", "8</w>"], ["2025-10-1", "6</w>"], ["2026-01", "-30</w>"], ["2026-02", "-06</w>"], ["2025-11-1", "3</w>"], ["2026-01-1", "5</w>"], ["2025-09-2", "8</w>"], ["기술검토서_T-1", "04</w>"], ["기술검토서_T-1", "06</w>"], ["12", "3ms,</w>"], ["9", "9W,</w>"], ["구성", "한다</w>"], ["기술검토서_T-1", "63</w>"], ["명세서_T-1", "34</w>"], ["36", "W,</w>"], ["보고서_T-0", "67</w>"], ["10", "9ms,</w>"], ["설계요건서_T-0", "16</w>"], ["10", "5Mbps,</w>"], ["설계요건서_T-0", "36</w>"], ["6", "3ms,</w>"], ["계획_T-02", "4</w>"], ["정의서_T-0", "88</w>"], ["12", "0ms,</w>"], ["30", "W,</w>"], ["2027-03-2", "5</w>"], ["정의서_T-1", "54</w>"], ["4", "4ms,</w>"], ["분류", "한다</w>"], ["정의서_T-1", "80</w>"], ["시험계획서_T-0", "65</w>"], ["13", "5Mbps,</w>"], ["계획_T-02", "8</w>"], ["3", "7C를</w>"], ["계획_T-0", "38</w>"], ["보고서_T-1", "17</w>"], ["계", "에서의</w>"], ["요약서_T-0", "77</w>"], ["30", "ms,</w>"], ["19", "6Mbps,</w>"], ["개요_T-0", "71</w>"], ["2027-03-2", "0</w>"], ["12", "8ms,</w>"], ["스", "크</w>"], ["절차서_T-1", "52</w>"], ["43", "점</w>"], ["절차서_T-1", "85</w>"], ["절차서_T-1", "91</w>"], ["9", "9ms,</w>"], ["검토서", "_005</w>"], ["검토서", "_01"], ["검토서_01", "4</w>"], ["프로세스_1", "37</w>"], ["계획_1", "93</w>"], ["계획_26", "4</w>"], ["2027-03-1", "5</w>"], ["보고_1", "05</w>"], ["보고_1", "52</w>"], ["기록", "_24"], ["기록_24", "1</w>"], ["만료(", "26"], ["만료(26", "일)</w>"], ["계획_09", "3</w>"], ["체크리스트_1", "70</w>"], ["지침", "_24"], ["지침_24", "8</w>"], ["지침", "_26"], ["지침_26", "3</w>"], ["가이드_23", "3</w>"], ["절차서_1", "28</w>"], ["절차서", "_28"], ["절차서_28", "0</w>"], ["경", "위</w>"], ["지침_05", "4</w>"], ["지침_1", "61</w>"], ["기준_0", "52</w>"], ["기준_1", "09</w>"], ["기준_2", "28</w>"], ["기준_2", "32</w>"], ["2027-03-1", "7</w>"], ["계획_12", "1</w>"], ["정책_1", "33</w>"], ["기준_2", "19</w>"], ["기준_2", "40</w>"], ["기술검토서_T-0", "18</w>"], ["15", "4ms,</w>"], ["14", "W,</w>"], ["낮", "</w>"], ["추", "기</w>"], ["기술검토", "서_T-02"], ["기술검토서_T-02", "3</w>"], ["11", "3ms,</w>"], ["기술검토서_T-0", "73</w>"], ["16", "6ms,</w>"], ["기술검토서_T-0", "84</w>"], ["110", "ms,</w>"], ["8", "7W,</w>"], ["기술검토서_T-12", "1</w>"], ["5", "6Mbps,</w>"], ["기술검토서_T-1", "28</w>"], ["기술검토서_T-1", "64</w>"], ["7", "5Mbps,</w>"], ["25", "W,</w>"], ["기술검토서_T-1", "72</w>"], ["명세서_T-0", "37</w>"], ["19", "4Mbps,</w>"], ["명세서_T-0", "46</w>"], ["20", "3Mbps,</w>"], ["명세서_T-1", "18</w>"], ["명세서_T-1", "44</w>"], ["5", "5Mbps,</w>"], ["명세서_T-1", "62</w>"], ["32", "W,</w>"], ["명세서_T-1", "68</w>"], ["15", "0ms,</w>"], ["43", "C를</w>"], ["보고서_T-0", "02</w>"], ["18", "8Mbps,</w>"], ["보고서_T-0", "12</w>"], ["10", "4ms,</w>"], ["보고서_T-0", "94</w>"], ["16", "2ms,</w>"], ["반", "도"], ["반도", "체</w>"], ["세", "정</w>"], ["공", "정"], ["공정", "용</w>"], ["가", "스</w>"], ["배", "합"], ["배합", "비</w>"], ["설계요건서_T-0", "09</w>"], ["7", "4ms,</w>"], ["35", "Mbps,</w>"], ["설계요건서_T-0", "11</w>"], ["17", "7ms,</w>"], ["9", "6W,</w>"], ["설계요건서_T-0", "74</w>"], ["2", "20"], ["220", "Mbps,</w>"], ["차", "로</w>"], ["설계요건서_T-0", "92</w>"], ["12", "9ms,</w>"], ["2027-03-1", "8</w>"], ["설계요건서_T-1", "20</w>"], ["7", "4Mbps,</w>"], ["설계요건서_T-1", "39</w>"], ["설계요건서_T-1", "53</w>"], ["1", "12W,</w>"], ["설계요건서_T-1", "57</w>"], ["16", "ms,</w>"], ["설계요건서_T-1", "66</w>"], ["19", "3Mbps,</w>"], ["설계요건서_T-1", "89</w>"], ["15", "8Mbps,</w>"], ["설계요건서_T-1", "93</w>"], ["변", "</w>"], ["4", "0W,</w>"], ["계획_T-0", "07</w>"], ["14", "2ms,</w>"], ["33", "Mbps,</w>"], ["계획_T-02", "0</w>"], ["9", "7Mbps,</w>"], ["계획_T-02", "1</w>"], ["계획_T-0", "47</w>"], ["롤", "</w>"], ["계획_T-0", "48</w>"], ["2", "14"], ["214", "Mbps,</w>"], ["계획_T-0", "83</w>"], ["계획_T-1", "41</w>"], ["6", "5ms,</w>"], ["17", "7Mbps,</w>"], ["계획_T-1", "79</w>"], ["24", "ms,</w>"], ["계획_T-1", "82</w>"], ["정의서_T-02", "2</w>"], ["정의서_T-0", "34</w>"], ["정의서_T-0", "87</w>"], ["시험계획서_T-1", "43</w>"], ["15", "2Mbps,</w>"], ["8", "5W,</w>"], ["시험계획서_T-1", "92</w>"], ["4", "6Mbps,</w>"], ["시험계획서_T-1", "96</w>"], ["13", "8ms,</w>"], ["시험계획서_T-1", "98</w>"], ["경", "계</w>"], ["계획_T-0", "03</w>"], ["계획_T-0", "33</w>"], ["4", "9W,</w>"], ["계획_T-09", "5</w>"], ["11", "7Mbps,</w>"], ["계획_T-1", "01</w>"], ["계획_T-1", "09</w>"], ["90", "Mbps,</w>"], ["보고서_T-0", "04</w>"], ["2", "16Mbps,</w>"], ["보고서_T-0", "05</w>"], ["17", "0Mbps,</w>"], ["보고서_T-0", "79</w>"], ["보고서_T-0", "98</w>"], ["19", "ms,</w>"], ["보고서_T-1", "95</w>"], ["14", "1Mbps,</w>"], ["9", "5W,</w>"], ["보고서_T-1", "97</w>"], ["12", "4ms,</w>"], ["보고서_T-1", "99</w>"], ["13", "7ms,</w>"], ["8", "1W,</w>"], ["요약서_T-0", "70</w>"], ["4", "7W,</w>"], ["요약서_T-0", "82</w>"], ["8", "1Mbps,</w>"], ["8", "9W,</w>"], ["요약서_T-0", "86</w>"], ["요약서_T-1", "45</w>"], ["114", "Mbps,</w>"], ["자", "율"], ["자율", "주"], ["자율주", "행</w>"], ["레이", "더"], ["레이더", "</w>"], ["신호", "</w>"], ["설계서_06", "1</w>"], ["설계서", "_085</w>"], ["2027-01", "-30</w>"], ["설계서_1", "64</w>"], ["설계서", "_20"], ["설계서_20", "6</w>"], ["차", "세"], ["차세", "대</w>"], ["칩", "셋"], ["칩셋", "("], ["칩셋(", "S"], ["칩셋(S", "o"], ["칩셋(So", "C"], ["칩셋(SoC", ")</w>"], ["회", "로</w>"], ["설계", "안</w>"], ["개요_T-0", "42</w>"], ["6", "2W,</w>"], ["개요_T-0", "72</w>"], ["6", "6ms,</w>"], ["1", "02"], ["102", "Mbps,</w>"], ["개요_T-0", "85</w>"], ["13", "3ms,</w>"], ["개요_T-1", "03</w>"], ["17", "3Mbps,</w>"], ["개요_T-1", "26</w>"], ["17", "9ms,</w>"], ["개요_T-1", "73</w>"], ["개요_T-1", "78</w>"], ["15", "9Mbps,</w>"], ["6", "9W,</w>"], ["개요_T", "-2"], ["개요_T-2", "00</w>"], ["26", "Mbps,</w>"], ["절차서_T-0", "06</w>"], ["절차서_T-0", "17</w>"], ["관", "함</w>"], ["절차서_T-0", "54</w>"], ["13", "5ms,</w>"], ["4", "1W,</w>"], ["절차서_T-0", "75</w>"], ["20", "8Mbps,</w>"], ["절차서_T-1", "05</w>"], ["검토서_1", "44</w>"], ["검토서_1", "67</w>"], ["검토서", "_21"], ["검토서_21", "4</w>"], ["요약_01", "1</w>"], ["요약_04", "7</w>"], ["요약", "_060</w>"], ["요약", "_27"], ["요약_27", "9</w>"], ["프로세스", "_05"], ["프로세스_05", "7</w>"], ["9", "시간,</w>"], ["프로세스", "_07"], ["프로세스_07", "3</w>"], ["프로세스", "_09"], ["프로세스_09", "7</w>"], ["에", "스</w>"], ["프로세스_1", "17</w>"], ["프로세스", "_20"], ["프로세스_20", "3</w>"], ["프로세스_21", "2</w>"], ["방안", "_007</w>"], ["방안_02", "4</w>"], ["계획_04", "1</w>"], ["리", ":</w>"], ["계획_09", "4</w>"], ["계획_1", "41</w>"], ["계획_1", "49</w>"], ["계획_1", "83</w>"], ["계획", "_24"], ["계획_24", "6</w>"], ["보고", "_020</w>"], ["2027-03-1", "4</w>"], ["보고", "_036</w>"], ["보고_07", "5</w>"], ["보고_1", "04</w>"], ["수행", "한</w>"], ["보고_1", "27</w>"], ["보고_1", "50</w>"], ["보고_1", "75</w>"], ["보고", "_22"], ["보고_22", "2</w>"], ["보고_25", "2</w>"], ["---|", "---|</w>"], ["보고", "_27"], ["보고_27", "5</w>"], ["기록_08", "2</w>"], ["기록_1", "59</w>"], ["만료(", "18"], ["만료(18", "일)</w>"], ["기록_16", "8</w>"], ["기록", "_"], ["기록_", "202"], ["기록_202", "</w>"], ["기록_22", "4</w>"], ["기록", "_27"], ["기록_27", "1</w>"], ["샘플", "_01"], ["샘플_01", "_"], ["샘플_01_", "규제</w>"], ["계획", "_샘플</w>"], ["계획_1", "13</w>"], ["계획", "_23"], ["계획_23", "6</w>"], ["체크리스트", "_01"], ["체크리스트_01", "2</w>"], ["체크리스트_1", "31</w>"], ["2026-12-2", "6</w>"], ["체크리스트_1", "96</w>"], ["체크리스트_20", "7</w>"], ["체크리스트", "_23"], ["체크리스트_23", "4</w>"], ["체크리스트", "_26"], ["체크리스트_26", "2</w>"], ["체크리스트", "_28"], ["체크리스트_28", "3</w>"], ["지침", "_010</w>"], ["지침_04", "0</w>"], ["지침_06", "7</w>"], ["지침_08", "8</w>"], ["지침_1", "19</w>"], ["지침_21", "3</w>"], ["가이드_1", "63</w>"], ["가이드_1", "84</w>"], ["가이드_1", "92</w>"], ["고려", "</w>"], ["가이드_23", "1</w>"], ["가이드_27", "0</w>"], ["절차서", "_006</w>"], ["절차서_02", "8</w>"], ["절차서", "_07"], ["절차서_07", "1</w>"], ["절차서_1", "85</w>"], ["절차서_1", "91</w>"], ["사업", "</w>"], ["연", "속"], ["연속", "성과</w>"], ["안정성", "을</w>"], ["점", "진</w>"], ["전환", ",</w>"], ["신", "속</w>"], ["두", "</w>"], ["가", "지</w>"], ["경로", "로</w>"], ["대응", "한다.</w>"], ["이관", ":</w>"], ["4", "단계"], ["4단계", "로</w>"], ["분리", "하고</w>"], ["인수인계", "를</w>"], ["유지", "와</w>"], ["일관", "성"], ["일관성", "을</w>"], ["최", "우선"], ["최우선", "으로</w>"], ["인", "사</w>"], ["관", "련"], ["관련", "</w>"], ["자료", "는</w>"], ["원칙", "으로</w>"], ["인수인계", ":</w>"], ["범위", ",</w>"], ["책", "임"], ["책임", ",</w>"], ["리스크", "를</w>"], ["항목", "별"], ["항목별", "로</w>"], ["명", "시"], ["명시", "한다.</w>"], ["이관", "표,</w>"], ["리스트", ",</w>"], ["가이", "드</w>"], ["운영", "위원회</w>"], ["안", "건</w>"], ["합", "의</w>"], ["승인", "권"], ["승인권", "</w>"], ["지침_00", "3</w>"], ["지침_04", "8</w>"], ["지침", "_07"], ["지침_07", "7</w>"], ["지침_21", "7</w>"], ["지침", "_25"], ["지침_25", "6</w>"], ["기준_0", "09</w>"], ["기준_2", "59</w>"], ["기준_2", "73</w>"], ["기준_2", "74</w>"], ["샘플", "_02"], ["샘플_02", "_"], ["샘플_02_", "공급망</w>"], ["대", "체</w>"], ["소", "스</w>"], ["전략", "_샘플</w>"], ["샘플", "_03"], ["샘플_03", "_"], ["샘플_03_", "품질</w>"], ["기준", "_샘플</w>"], ["샘플", "_04"], ["샘플_04", "_"], ["샘플_04_", "조달"], ["샘플_04_조달", "-"], ["샘플_04_조달-", "입"], ["샘플_04_조달-입", "찰</w>"], ["프레임", "워"], ["프레임워", "크"], ["프레임워크", "_샘플</w>"], ["42", "%)</w>"], ["2", "7%</w>"], ["샘플", "_05"], ["샘플_05", "_"], ["샘플_05_", "보안</w>"], ["설계", "_샘플</w>"], ["배", "터"], ["배터", "리</w>"], ["양", "극"], ["양극", "재</w>"], ["공", "정</w>"], ["계획_04", "4</w>"], ["계획_07", "6</w>"], ["계획_1", "00</w>"], ["계획_1", "30</w>"], ["2026-10", "-02</w>"], ["계획_1", "60</w>"], ["계획_26", "6</w>"], ["2027-03-2", "9</w>"], ["자료_03", "5</w>"], ["실행안", "_00"], ["실행안_00", "1</w>"], ["실행안_01", "3</w>"], ["실행안", "_058</w>"], ["실행안_08", "9</w>"], ["실행안", "_189</w>"], ["실행안_28", "4</w>"], ["정책", "_002</w>"], ["정책_09", "2</w>"], ["정책_09", "9</w>"], ["정책_1", "11</w>"], ["정책", "_165</w>"], ["정책_1", "90</w>"], ["정책", "_20"], ["정책_20", "5</w>"], ["정책", "_27"], ["정책_27", "2</w>"], ["기준_0", "50</w>"], ["기준_0", "62</w>"], ["기준_0", "74</w>"], ["2027-01-1", "5</w>"], ["기준_2", "38</w>"], ["기준_2", "45</w>"], ["기준_2", "68</w>"], ["회의록_00", "1</w>"], ["회의록_0", "02</w>"], ["회의록_00", "3</w>"], ["회의록_00", "4</w>"], ["회의록_00", "5</w>"], ["회의록_00", "6</w>"], ["회의록_00", "7</w>"], ["회의록_00", "8</w>"], ["회의록_00", "9</w>"], ["회의록_01", "0</w>"], ["회의록_01", "1</w>"], ["회의록_01", "2</w>"], ["회의록_01", "3</w>"], ["회의록_01", "4</w>"], ["회의록_01", "5</w>"], ["회의록_01", "6</w>"], ["회의록_01", "7</w>"], ["회의록_01", "8</w>"], ["회의록_01", "9</w>"], ["회의록_02", "0</w>"], ["회의록_02", "1</w>"], ["회의록_02", "2</w>"], ["회의록_02", "3</w>"], ["회의록_02", "4</w>"], ["회의록_02", "5</w>"], ["회의록_02", "6</w>"], ["회의록_02", "7</w>"], ["회의록_02", "8</w>"], ["회의록_02", "9</w>"], ["회의록_0", "30</w>"], ["회의록_03", "1</w>"], ["회의록_03", "2</w>"], ["회의록_03", "3</w>"], ["2027-04", "-2"], ["2027-04-2", "9</w>"], ["회의록_03", "4</w>"], ["회의록_03", "5</w>"], ["회의록_03", "6</w>"], ["회의록_03", "7</w>"], ["회의록_03", "8</w>"], ["회의록_03", "9</w>"], ["회의록_04", "0</w>"], ["회의록_04", "1</w>"], ["회의록_04", "2</w>"], ["회의록_04", "3</w>"], ["회의록_04", "4</w>"], ["회의록_04", "5</w>"], ["회의록_04", "6</w>"], ["회의록_04", "7</w>"], ["회의록_04", "8</w>"], ["회의록_04", "9</w>"], ["회의록_0", "50</w>"], ["N", "G"], ["NG", "-"], ["NG-", "T"], ["NG-T", "R-"], ["NG-TR-", "2026-"], ["NG-TR-2026-", "HPM"], ["NG-TR-2026-HPM", "-0"], ["NG-TR-2026-HPM-0", "11"], ["NG-TR-2026-HPM-011", "_"], ["NG-TR-2026-HPM-011_", "HPM"], ["NG-TR-2026-HPM-011_HPM", "_"], ["NG-TR-2026-HPM-011_HPM_", "방"], ["NG-TR-2026-HPM-011_HPM_방", "호"], ["NG-TR-2026-HPM-011_HPM_방호", "설계"], ["NG-TR-2026-HPM-011_HPM_방호설계", "_"], ["NG-TR-2026-HPM-011_HPM_방호설계_", "가이드라인</w>"], ["기술검토서_T-0", "35</w>"], ["90", "W,</w>"], ["기술검토서_T-0", "53</w>"], ["11", "9W,</w>"], ["기술검토서_T-0", "59</w>"], ["15", "9ms,</w>"], ["4", "4C를</w>"], ["기술검토서_T-12", "2</w>"], ["34", "W,</w>"], ["기술검토서_T-1", "49</w>"], ["7", "1C를</w>"], ["기술검토서_T-1", "59</w>"], ["8", "1ms,</w>"], ["기술검토서_T-1", "71</w>"], ["기술검토서_T-1", "77</w>"], ["명세서_T-0", "43</w>"], ["14", "2Mbps,</w>"], ["명세서_T-0", "61</w>"], ["17", "8ms,</w>"], ["202", "Mbps,</w>"], ["명세서_T-0", "68</w>"], ["명세서_T-0", "91</w>"], ["5", "3ms,</w>"], ["7", "9Mbps,</w>"], ["명세서_T-0", "96</w>"], ["114", "ms,</w>"], ["13", "4Mbps,</w>"], ["명세서_T-1", "13</w>"], ["7", "3ms,</w>"], ["명세서_T-1", "24</w>"], ["9", "3W,</w>"], ["명세서_T-1", "38</w>"], ["5", "0점</w>"], ["명세서_T-1", "70</w>"], ["11", "9ms,</w>"], ["명", "확</w>"], ["명세서_T-1", "81</w>"], ["15", "7Mbps,</w>"], ["10", "6W,</w>"], ["명세서_T-1", "86</w>"], ["램", "제"], ["램제", "트</w>"], ["엔", "진</w>"], ["연", "소"], ["연소", "기</w>"], ["최", "적"], ["최적", "화</w>"], ["보고서_T-0", "52</w>"], ["12", "1ms,</w>"], ["보고서_T-0", "78</w>"], ["6", "2ms,</w>"], ["9", "8Mbps,</w>"], ["보고서_T-12", "5</w>"], ["보고서_T-1", "48</w>"], ["보고서_T-1", "56</w>"], ["보고서_T-1", "87</w>"], ["13", "9Mbps,</w>"], ["설계요건서_T-0", "13</w>"], ["15", "3ms,</w>"], ["설계요건서_T-0", "49</w>"], ["설계요건서_T-0", "90</w>"], ["16", "8Mbps,</w>"], ["2027-04", "-03</w>"], ["설계요건서_T-1", "00</w>"], ["설계요건서_T-1", "07</w>"], ["설계요건서_T-1", "47</w>"], ["9", "7ms,</w>"], ["계획_T-0", "01</w>"], ["15", "ms,</w>"], ["16", "W,</w>"], ["계획_T-0", "19</w>"], ["지연", "으"], ["지연으", "</w>"], ["계획_T-02", "7</w>"], ["계획_T-0", "39</w>"], ["12", "7Mbps,</w>"], ["계획_T-0", "44</w>"], ["10", "1W,</w>"], ["계획_T-0", "55</w>"], ["4", "6ms,</w>"], ["15", "4Mbps,</w>"], ["계획_T-0", "80</w>"], ["17", "6Mbps,</w>"], ["계획_T-1", "08</w>"], ["6", "4Mbps,</w>"], ["계획_T-1", "15</w>"], ["15", "1ms,</w>"], ["계획_T-1", "27</w>"], ["34", "ms,</w>"], ["분류", "한</w>"], ["계획_T-1", "84</w>"], ["5", "0ms,</w>"], ["계획_T-1", "94</w>"], ["정의서_T-0", "15</w>"], ["11", "7W,</w>"], ["정의서_T-02", "6</w>"], ["화", "됨</w>"], ["정의서_T-0", "31</w>"], ["정의서_T-0", "41</w>"], ["정의서_T-0", "45</w>"], ["5", "5ms,</w>"], ["17", "W,</w>"], ["8", "4점</w>"], ["정의서_T-0", "69</w>"], ["18", "7Mbps,</w>"], ["정의서_T-0", "76</w>"], ["6", "7Mbps,</w>"], ["9", "4W,</w>"], ["정의서_T-0", "97</w>"], ["정의서_T-1", "19</w>"], ["적용", "한</w>"], ["9", "9Mbps,</w>"], ["시험계획서_T-0", "10</w>"], ["32", "ms,</w>"], ["2", "13"], ["213", "Mbps,</w>"], ["시험계획서_T-0", "14</w>"], ["12", "9Mbps,</w>"], ["시험계획", "서_T-02"], ["시험계획서_T-02", "9</w>"], ["10", "3Mbps,</w>"], ["시험계획서_T-0", "40</w>"], ["시험계획서_T-0", "50</w>"], ["시험계획서_T-0", "56</w>"], ["7", "8Mbps,</w>"], ["11", "3W,</w>"], ["시험계획서_T-0", "62</w>"], ["7", "9ms,</w>"], ["시험계획서_T-0", "63</w>"], ["시험계획서_T-0", "64</w>"], ["23", "W,</w>"], ["시험계획서_T-1", "12</w>"], ["시험계획서_T-1", "14</w>"], ["시험계획서_T-1", "16</w>"], ["시험계획서_T-1", "2"], ["시험계획서_T-12", "3</w>"], ["17", "0ms,</w>"], ["시험계획서_T-1", "33</w>"], ["6", "7ms,</w>"], ["9", "4Mbps,</w>"], ["시험계획서_T-1", "35</w>"], ["12", "1Mbps,</w>"], ["시험계획서_T-1", "51</w>"], ["4", "2점</w>"], ["시험계획서_T-1", "55</w>"], ["시험계획서_T-1", "69</w>"], ["제", ":</w>"], ["시험계획서_T-1", "74</w>"], ["13", "6Mbps,</w>"], ["시험계획서_T-1", "83</w>"], ["19", "W,</w>"], ["계획_T-0", "30</w>"], ["20", "6Mbps,</w>"], ["계획_T-0", "57</w>"], ["계획_T-0", "89</w>"], ["15", "8ms,</w>"], ["결", "</w>"], ["계획_T-09", "3</w>"], ["계획_T-1", "31</w>"], ["12", "5ms,</w>"], ["계획_T-1", "60</w>"], ["계획_T-1", "65</w>"], ["9", "2ms,</w>"], ["16", "5Mbps,</w>"], ["보고서_T-0", "08</w>"], ["16", "6Mbps,</w>"], ["보고서_T-0", "51</w>"], ["8", "7Mbps,</w>"], ["8", "6W,</w>"], ["보고서_T-0", "58</w>"], ["14", "8ms,</w>"], ["보고서_T-1", "10</w>"], ["보고서_T-12", "9</w>"], ["1", "12Mbps,</w>"], ["보고서_T-1", "30</w>"], ["보고서_T-1", "32</w>"], ["보고서_T-1", "50</w>"], ["18", "9Mbps,</w>"], ["보고서_T-1", "67</w>"], ["20", "0Mbps,</w>"], ["12", "0W,</w>"], ["실", "환"], ["실환", "</w>"], ["보고서_T-1", "75</w>"], ["13", "0ms,</w>"], ["18", "4Mbps,</w>"], ["29", "W,</w>"], ["지연-", "정</w>"], ["요약서_T-0", "32</w>"], ["8", "6C를</w>"], ["무관", "</w>"], ["2027-02-2", "5</w>"], ["요약서_T-0", "99</w>"], ["신뢰", "</w>"], ["요약서_T-1", "42</w>"], ["5", "8Mbps,</w>"], ["5", "5C를</w>"], ["7", "6점</w>"], ["요약서_T-1", "58</w>"], ["요약서_T-1", "76</w>"], ["20", "9Mbps,</w>"], ["요약서_T-1", "88</w>"], ["요약서_T-1", "90</w>"], ["8", "0Mbps,</w>"], ["설계서", "_05"], ["설계서_05", "1</w>"], ["설계서_06", "5</w>"], ["설계서", "_078</w>"], ["설계서_1", "07</w>"], ["설계서_1", "14</w>"], ["명", "한다.</w>"], ["설계서_1", "16</w>"], ["설계서_1", "2"], ["설계서_12", "5</w>"], ["설계서", "_21"], ["설계서_21", "0</w>"], ["설계서_22", "5</w>"], ["설계서_22", "9</w>"], ["규", "명</w>"], ["설계서", "_26"], ["설계서_26", "7</w>"], ["지", "휘"], ["지휘", "통제</w>"], ["인", "프"], ["인프", "라</w>"], ["구", "축"], ["구축", "</w>"], ["입찰", "서</w>"], ["44", "%)</w>"], ["개요_T", "-02"], ["개요_T-02", "5</w>"], ["23", "ms,</w>"], ["개요_T-0", "60</w>"], ["19", "0Mbps,</w>"], ["개요_T-0", "66</w>"], ["개요_T-0", "81</w>"], ["11", "6Mbps,</w>"], ["개요_T-1", "02</w>"], ["개요_T-1", "36</w>"], ["9", "6Mbps,</w>"], ["5", "5W,</w>"], ["개요_T-1", "40</w>"], ["14", "5Mbps,</w>"], ["2027-03-1", "1</w>"], ["개요_T-1", "46</w>"], ["8", "0ms,</w>"], ["절차서_T-1", "11</w>"], ["10", "8ms,</w>"], ["11", "9Mbps,</w>"], ["절차서_T-1", "37</w>"], ["16", "5ms,</w>"], ["절차서_T-1", "61</w>"], ["2", "12Mbps,</w>"], ["검토서", "_043</w>"], ["검토서", "_08"], ["검토서_08", "4</w>"], ["검토서_1", "03</w>"], ["검토서_1", "10</w>"], ["검토서_1", "46</w>"], ["검토서_1", "58</w>"], ["검토서", "_20"], ["검토서_20", "0</w>"], ["검토서_22", "1</w>"], ["검토서_22", "6</w>"], ["요약", "_00"], ["요약_00", "8</w>"], ["요약", "_03"], ["요약_03", "9</w>"], ["요약_04", "5</w>"], ["요약_1", "43</w>"], ["요약_1", "45</w>"], ["요약", "_20"], ["요약_20", "8</w>"], ["요약", "_22"], ["요약_22", "7</w>"], ["요약_24", "4</w>"], ["준", ":</w>"], ["요약_24", "9</w>"], ["요약", "_28"], ["요약_28", "1</w>"], ["프로세스", "_02"], ["프로세스_02", "7</w>"], ["프로세스", "_042</w>"], ["프로세스", "_069</w>"], ["프로세스", "_08"], ["프로세스_08", "1</w>"], ["리", "한다.</w>"], ["프로세스", "_106</w>"], ["프로세스_1", "32</w>"], ["프로세스_1", "35</w>"], ["프로세스", "_18"], ["프로세스_18", "2</w>"], ["12", "시간,</w>"], ["프로세스_21", "5</w>"], ["프로세스_26", "1</w>"], ["마", "</w>"], ["프로세스_26", "9</w>"], ["A", "I</w>"], ["봇", "</w>"], ["학", "습"], ["학습", "</w>"], ["방안", "_01"], ["방안_01", "7</w>"], ["방안_02", "1</w>"], ["방안_21", "1</w>"], ["방안_21", "8</w>"], ["방안", "_23"], ["방안_23", "7</w>"], ["방안", "_24"], ["방안_24", "2</w>"], ["계획_01", "9</w>"], ["증", "</w>"], ["빙", "</w>"], ["업데", "</w>"], ["계획_03", "2</w>"], ["계획_04", "6</w>"], ["계획_12", "2</w>"], ["계획_1", "40</w>"], ["계획_1", "79</w>"], ["보고_07", "2</w>"], ["보고", "_09"], ["보고_09", "1</w>"], ["격", "리</w>"], ["보고_1", "12</w>"], ["보고_1", "39</w>"], ["보고_1", "42</w>"], ["보고_25", "0</w>"], ["보고", "_28"], ["보고_28", "2</w>"], ["만료(", "12"], ["만료(12", "일)</w>"], ["기록", "_06"], ["기록_06", "8</w>"], ["기록_08", "3</w>"], ["기록_09", "0</w>"], ["기록_09", "6</w>"], ["기록", "_10"], ["기록_10", "1</w>"], ["2027-02-2", "3</w>"], ["만료(", "14"], ["만료(14", "일)</w>"], ["기록_16", "6</w>"], ["기록_1", "71</w>"], ["기록_1", "95</w>"], ["기록_1", "98</w>"], ["기록_22", "0</w>"], ["계획_01", "6</w>"], ["계획_1", "15</w>"], ["계획_1", "73</w>"], ["계획_1", "78</w>"], ["체크리스트", "_029</w>"], ["체크리스트", "_03"], ["체크리스트_03", "4</w>"], ["체크리스트", "_098</w>"], ["체크리스트_1", "38</w>"], ["체크리스트_1", "51</w>"], ["체크리스트_1", "55</w>"], ["체크리스트_1", "97</w>"], ["체크리스트", "_21"], ["체크리스트_21", "6</w>"], ["체크리스트", "_22"], ["체크리스트_22", "3</w>"], ["체크리스트", "_25"], ["체크리스트_25", "4</w>"], ["체크리스트", "_27"], ["체크리스트_27", "7</w>"], ["2027-03-2", "4</w>"], ["지침_04", "9</w>"], ["지침_05", "9</w>"], ["지침_08", "6</w>"], ["지침_1", "34</w>"], ["지침_1", "72</w>"], ["지침_1", "81</w>"], ["가이드", "_00"], ["가이드_00", "4</w>"], ["가이드_03", "1</w>"], ["가이드", "_05"], ["가이드_05", "5</w>"], ["가이드_1", "57</w>"], ["가이드_1", "86</w>"], ["가이드_1", "99</w>"], ["가이드_27", "8</w>"], ["절차서_02", "5</w>"], ["절차서_1", "53</w>"], ["절차서_1", "54</w>"], ["절차서_1", "74</w>"], ["절차서_1", "94</w>"], ["절차서", "_20"], ["절차서_20", "9</w>"], ["절차서", "_26"], ["절차서_26", "0</w>"], ["[대외", "비"], ["[대외비", "["], ["[대외비[", "K"], ["[대외비[K", "-"], ["[대외비[K-", "지"], ["[대외비[K-지", "능"], ["[대외비[K-지능", "형"], ["[대외비[K-지능형", "</w>"], ["무", "인"], ["무인", "차"], ["무인차", "량</w>"], ["양", "산</w>"], ["계약", "서</w>"], ["35", "%)</w>"], ["글", "로"], ["글로", "벌"], ["글로벌", "</w>"], ["파트너", "십"], ["파트너십", "</w>"], ["가", "격</w>"], ["전략", "</w>"], ["38", "%)</w>"], ["2", "6%</w>"], ["지침_1", "88</w>"], ["지침", "_20"], ["지침_20", "4</w>"], ["기준_1", "26</w>"], ["기준_1", "36</w>"], ["기준_1", "47</w>"], ["기준_1", "80</w>"], ["기준", "_20"], ["기준_20", "1</w>"], ["기준_2", "76</w>"], ["안정화", "와</w>"], ["우선순", "위"], ["우선순위", "를</w>"], ["운", "용</w>"], ["가", "정"], ["가정", ":</w>"], ["유", "동"], ["유동", "성</w>"], ["6", "개월</w>"], ["규칙", ":</w>"], ["분", "할</w>"], ["승인", "("], ["승인(", "게이트</w>"], ["헤", "지</w>"], ["변", "동</w>"], ["구", "간</w>"], ["비율", "을</w>"], ["38", "%"], ["38%", "까지</w>"], ["대", "규"], ["대규", "모</w>"], ["지", "출"], ["지출", "은</w>"], ["리뷰", "</w>"], ["회", "의</w>"], ["순", "으로</w>"], ["재", "무</w>"], ["산출", "</w>"], ["집", "행"], ["집행", "표,</w>"], ["지", "출</w>"], ["근", "거"], ["근거", "</w>"], ["문서", "</w>"], ["첨", "부</w>"], ["범", "주</w>"], ["역", "량</w>"], ["강", "화</w>"], ["시", "설"], ["시설", "투자</w>"], ["가동", "</w>"], ["운영", "비</w>"], ["지", "속</w>"], ["사", "내</w>"], ["정보보호", "</w>"], ["사", "례"], ["사례", "</w>"], ["징", "계</w>"], ["신", "제품</w>"], ["디", "자"], ["디자", "인</w>"], ["방지", "를</w>"], ["엠", "바"], ["엠바", "고</w>"], ["계획_03", "7</w>"], ["계획_07", "0</w>"], ["계획_09", "5</w>"], ["계획_1", "02</w>"], ["계획_12", "9</w>"], ["계획_1", "76</w>"], ["자료", "_026</w>"], ["자료", "_030</w>"], ["만료(", "10"], ["만료(10", "일)</w>"], ["자료_03", "8</w>"], ["자료", "_066</w>"], ["자료", "_169</w>"], ["자료", "_23"], ["자료_23", "9</w>"], ["만료(", "30"], ["만료(30", "일)</w>"], ["자료", "_25"], ["자료_25", "7</w>"], ["실행안_01", "5</w>"], ["실행안_08", "0</w>"], ["실행안", "_123</w>"], ["2027-03-2", "6</w>"], ["실행안", "_1"], ["실행안_1", "48</w>"], ["실행안", "_16"], ["실행안_16", "2</w>"], ["실행안", "_23"], ["실행안_23", "5</w>"], ["실행안_25", "5</w>"], ["실행안_25", "8</w>"], ["실행안", "_26"], ["실행안_26", "5</w>"], ["실행안_28", "5</w>"], ["정책", "_018</w>"], ["정책", "_03"], ["정책_03", "3</w>"], ["정책_05", "3</w>"], ["정책_05", "6</w>"], ["정책_12", "0</w>"], ["정책_12", "4</w>"], ["정책", "_18"], ["정책_18", "7</w>"], ["정책_24", "3</w>"], ["정책_24", "7</w>"], ["정책_25", "1</w>"], ["정책_25", "3</w>"], ["기준_02", "3</w>"], ["기준_0", "63</w>"], ["기준_0", "64</w>"], ["기준_0", "79</w>"], ["기준_0", "87</w>"], ["기준_1", "56</w>"], ["2027-04", "-05</w>"], ["기준_2", "30</w>"], ["자료", "_01"], ["자료_01", "9</w>"], ["자료_03", "9</w>"], ["자료", "_05"], ["자료_05", "9</w>"], ["자료", "_07"], ["자료_07", "9</w>"], ["자료", "_09"], ["자료_09", "9</w>"], ["2026-02-1", "1</w>"], ["자료_1", "19</w>"], ["자료_1", "39</w>"], ["자료_1", "59</w>"], ["2025-10-2", "9</w>"], ["2026-02", "-01</w>"], ["자료_1", "79</w>"], ["2026-01-1", "4</w>"], ["자료_1", "99</w>"], ["문서", "_00"], ["문서_00", "3</w>"], ["문서", "_02"], ["문서_02", "3</w>"], ["문서", "_043</w>"], ["문서", "_06"], ["문서_06", "3</w>"], ["문서", "_08"], ["문서_08", "3</w>"], ["문서", "_10"], ["문서_10", "3</w>"], ["문서", "_123</w>"], ["문서", "_1"], ["문서_1", "43</w>"], ["문서", "_16"], ["문서_16", "3</w>"], ["문서", "_18"], ["문서_18", "3</w>"], ["2025-10-1", "7</w>"], ["2025-12-2", "3</w>"], ["가이드", "_002</w>"], ["99.", "9</w>"], ["가이드", "_042</w>"], ["2025-09-2", "4</w>"], ["가이드_06", "2</w>"], ["가이드_08", "2</w>"], ["가이드_1", "02</w>"], ["가이드_1", "2"], ["가이드_12", "2</w>"], [".", "9%</w>"], ["가이드_1", "42</w>"], ["가이드_1", "62</w>"], ["2025-11-1", "9</w>"], ["2026-02", "-08</w>"], ["가이드_1", "82</w>"], ["안내_0", "12</w>"], ["안내_0", "32</w>"], ["안내_0", "52</w>"], ["안내_0", "72</w>"], ["안내_0", "92</w>"], ["안내_1", "12</w>"], ["안내_1", "32</w>"], ["2026-01-1", "6</w>"], ["안내_1", "52</w>"], ["안내_1", "72</w>"], ["안내_1", "92</w>"], ["절차", "_00"], ["절차_00", "9</w>"], ["2025-09-1", "6</w>"], ["2025-11-1", "1</w>"], ["절차", "_029</w>"], ["절차", "_04"], ["절차_04", "9</w>"], ["절차", "_069</w>"], ["2025-10-2", "5</w>"], ["절차", "_08"], ["절차_08", "9</w>"], ["2025-11", "-02</w>"], ["2026-01-1", "0</w>"], ["절차", "_10"], ["절차_10", "9</w>"], ["절차", "_12"], ["절차_12", "9</w>"], ["절차", "_1"], ["절차_1", "49</w>"], ["절차", "_169</w>"], ["2025-12-1", "8</w>"], ["절차", "_189</w>"], ["2025-10-1", "1</w>"], ["2025-12-2", "1</w>"], ["기준_0", "01</w>"], ["기준_02", "1</w>"], ["2025-09", "-07</w>"], ["2025-10-1", "8</w>"], ["기준_0", "41</w>"], ["기준_0", "61</w>"], ["기준_0", "81</w>"], ["2026-02", "-04</w>"], ["기준_1", "01</w>"], ["기준_1", "2"], ["기준_12", "1</w>"], ["기준_1", "41</w>"], ["2025-12-1", "6</w>"], ["기준_1", "61</w>"], ["기준_1", "81</w>"], ["기준_0", "17</w>"], ["기준_0", "37</w>"], ["기준_0", "57</w>"], ["기준_0", "77</w>"], ["기준_0", "97</w>"], ["기준_1", "17</w>"], ["기준_1", "37</w>"], ["기준_1", "57</w>"], ["기준_1", "97</w>"], ["기준_0", "08</w>"], ["2025-12-2", "0</w>"], ["기준_02", "8</w>"], ["예", "시</w>"], ["기준_0", "48</w>"], ["기준_0", "68</w>"], ["2026-02", "-07</w>"], ["기준_0", "88</w>"], ["2025-11-1", "0</w>"], ["2026-01", "-09</w>"], ["기준_1", "28</w>"], ["2025-12", "-05</w>"], ["기준_1", "48</w>"], ["2025-10-2", "7</w>"], ["기준_1", "68</w>"], ["기준_1", "88</w>"], ["안내_0", "11</w>"], ["안내_0", "31</w>"], ["2025-11-2", "9</w>"], ["안내_0", "51</w>"], ["2025-11", "-08</w>"], ["안내_0", "71</w>"], ["안내_0", "91</w>"], ["안내_1", "11</w>"], ["안내_1", "31</w>"], ["안내_1", "51</w>"], ["안내_1", "71</w>"], ["안내_1", "91</w>"], ["2025-11-2", "0</w>"], ["안내_0", "14</w>"], ["안내_0", "34</w>"], ["안내_0", "54</w>"], ["2026-02-2", "2</w>"], ["안내_0", "74</w>"], ["2025-11", "-05</w>"], ["2026-01", "-02</w>"], ["안내_0", "94</w>"], ["2025-12-2", "9</w>"], ["안내_1", "14</w>"], ["안내_1", "34</w>"], ["2025-12-1", "2</w>"], ["안내_1", "54</w>"], ["안내_1", "74</w>"], ["2025-11-1", "7</w>"], ["안내_1", "94</w>"], ["안내_0", "13</w>"], ["안내_0", "33</w>"], ["안내_0", "53</w>"], ["안내_0", "73</w>"], ["2025-10-1", "5</w>"], ["안내_0", "93</w>"], ["안내_1", "13</w>"], ["안내_1", "33</w>"], ["2026-01", "-03</w>"], ["2026-02", "-03</w>"], ["안내_1", "53</w>"], ["안내_1", "73</w>"], ["2026-02-2", "7</w>"], ["안내_1", "93</w>"], ["2025-11-1", "8</w>"], ["템플릿", "_006</w>"], ["템플릿", "_026</w>"], ["템플릿", "_04"], ["템플릿_04", "6</w>"], ["템플릿", "_066</w>"], ["2025-10", "-30</w>"], ["템플릿", "_08"], ["템플릿_08", "6</w>"], ["템플릿", "_106</w>"], ["템플릿", "_12"], ["템플릿_12", "6</w>"], ["템플릿", "_1"], ["템플릿_1", "46</w>"], ["템플릿", "_16"], ["템플릿_16", "6</w>"], ["템플릿", "_18"], ["템플릿_18", "6</w>"], ["문구", "_010</w>"], ["문구", "_030</w>"], ["문구", "_05"], ["문구_05", "0</w>"], ["2025-10-1", "3</w>"], ["문구", "_07"], ["문구_07", "0</w>"], ["문구", "_09"], ["문구_09", "0</w>"], ["문구_1", "10</w>"], ["문구_1", "30</w>"], ["문구_1", "50</w>"], ["2025-12", "-31</w>"], ["문구_1", "70</w>"], ["문구_1", "90</w>"], ["가이드", "_018</w>"], ["가이드_03", "8</w>"], ["가이드", "_058</w>"], ["가이드", "_078</w>"], ["가이드", "_098</w>"], ["가이드_1", "38</w>"], ["2025-09-1", "4</w>"], ["2025-11-1", "6</w>"], ["가이드_1", "58</w>"], ["가이드_1", "78</w>"], ["2026-01-1", "3</w>"], ["가이드_1", "98</w>"], ["메모", "_005</w>"], ["메모", "_02"], ["메모_02", "5</w>"], ["메모", "_04"], ["메모_04", "5</w>"], ["메모", "_06"], ["메모_06", "5</w>"], ["메모", "_085</w>"], ["메모", "_10"], ["메모_10", "5</w>"], ["메모", "_12"], ["메모_12", "5</w>"], ["메모", "_1"], ["메모_1", "45</w>"], ["메모", "_165</w>"], ["메모", "_18"], ["메모_18", "5</w>"], ["안내_0", "15</w>"], ["안내_0", "35</w>"], ["안내_0", "55</w>"], ["안내_0", "75</w>"], ["안내_0", "95</w>"], ["안내_1", "15</w>"], ["안내_1", "35</w>"], ["2026-01-1", "9</w>"], ["안내_1", "55</w>"], ["안내_1", "75</w>"], ["안내_1", "95</w>"], ["2025-09", "-02</w>"], ["요약_01", "6</w>"], ["2026-02-1", "9</w>"], ["요약", "_036</w>"], ["요약", "_05"], ["요약_05", "6</w>"], ["2026-02-1", "4</w>"], ["요약", "_07"], ["요약_07", "6</w>"], ["요약", "_09"], ["요약_09", "6</w>"], ["2026-01", "-06</w>"], ["요약_1", "16</w>"], ["2025-10-1", "0</w>"], ["요약_1", "36</w>"], ["요약_1", "56</w>"], ["요약_1", "76</w>"], ["요약_1", "96</w>"], ["2025-12", "-07</w>"], ["체크리스트", "_020</w>"], ["2026-02-2", "0</w>"], ["체크리스트", "_04"], ["체크리스트_04", "0</w>"], ["체크리스트", "_060</w>"], ["체크리스트", "_08"], ["체크리스트_08", "0</w>"], ["2026-01", "-04</w>"], ["체크리스트_1", "00</w>"], ["체크리스트_1", "20</w>"], ["체크리스트_1", "40</w>"], ["체크리스트_1", "60</w>"], ["체크리스트_1", "80</w>"], ["체크리스트_20", "0</w>"], ["2026-02-1", "5</w>"], ["가이드", "_007</w>"], ["가이드_02", "7</w>"], ["가이드", "_04"], ["가이드_04", "7</w>"], ["가이드_06", "7</w>"], ["가이드_08", "7</w>"], ["가이드_1", "07</w>"], ["가이드_1", "27</w>"], ["2025-11-2", "7</w>"], ["가이드_1", "47</w>"], ["가이드_1", "67</w>"], ["2025-12-1", "1</w>"], ["가이드_1", "87</w>"], ["지침_00", "4</w>"], ["2025-10", "-01</w>"], ["지침", "_02"], ["지침_02", "4</w>"], ["지침_04", "4</w>"], ["2025-12-2", "4</w>"], ["지침_06", "4</w>"], ["2025-09-2", "2</w>"], ["지침_08", "4</w>"], ["지침_1", "04</w>"], ["지침_1", "24</w>"], ["2025-12", "-30</w>"], ["지침_1", "44</w>"], ["지침_1", "64</w>"], ["지침_1", "84</w>"]], "normalization": {"collapse_spaces": true}}